<unk>	0
<pad>	0
<bos>	0
<eos>	0
▁de	-2.87174
,	-3.17194
▁la	-3.59513
.	-3.61189
▁a	-3.89287
▁în	-4.12933
▁en	-4.24111
▁el	-4.27396
▁que	-4.33086
▁y	-4.53212
▁los	-4.55079
▁se	-4.70533
▁şi	-4.73263
▁las	-4.85224
▁del	-4.86741
▁să	-5.03833
▁un	-5.10355
)	-5.14366
▁o	-5.16539
▁care	-5.24462
▁pentru	-5.25353
▁din	-5.33995
▁este	-5.36942
▁(	-5.37438
▁por	-5.37566
▁cu	-5.38954
▁al	-5.45003
▁para	-5.4897
▁con	-5.59697
▁una	-5.67652
-	-5.69099
a	-5.71516
▁no	-5.72458
;	-5.77007
s	-5.81837
▁că	-5.83263
▁nu	-5.85398
▁și	-5.89374
▁pe	-5.92798
▁artículo	-5.9332
:	-6.01153
▁-	-6.06367
▁es	-6.06453
▁sau	-6.1011
▁mai	-6.12179
▁su	-6.22928
▁trebuie	-6.23584
▁comisión	-6.34738
i	-6.36047
▁sunt	-6.36314
▁1	-6.37081
cee	-6.38019
▁lo	-6.4013
▁estados	-6.43349
▁como	-6.46213
▁miembros	-6.47525
▁directiva	-6.47787
▁membre	-6.48674
▁reglamento	-6.48817
▁sobre	-6.51938
e	-6.52125
▁art	-6.54979
▁acest	-6.56617
ce	-6.57099
▁ca	-6.58927
▁	-6.60539
▁fi	-6.60747
▁privind	-6.61831
▁ha	-6.65368
▁ce	-6.67116
▁presente	-6.6814
le	-6.70754
▁más	-6.71175
▁ue	-6.72858
▁"	-6.74095
▁,	-6.74672
▁articolul	-6.74807
▁prin	-6.76483
n	-6.78392
▁2	-6.7907
▁au	-6.80491
▁apartado	-6.82465
▁ar	-6.83354
▁europea	-6.8457
▁statele	-6.84929
▁ale	-6.86331
o	-6.90767
▁întrucât	-6.91969
▁fost	-6.93006
▁dacă	-6.94754
▁consejo	-6.95351
▁fie	-6.95576
▁va	-6.95861
▁europene	-6.96204
lor	-6.96407
▁alin	-7.00307
▁esta	-7.00743
▁sus	-7.0284
▁această	-7.03837
▁toate	-7.07816
ă	-7.09983
▁estado	-7.1197
▁nr	-7.12781
▁si	-7.1304
▁también	-7.13359
▁3	-7.13538
▁parte	-7.14397
▁comisia	-7.15587
▁comisiei	-7.15973
▁europa	-7.17305
▁le	-7.19216
▁n	-7.19627
▁am	-7.20015
▁regulamentul	-7.2043
▁medidas	-7.20865
▁sin	-7.22324
▁ne	-7.23654
▁europeo	-7.26008
▁unei	-7.26452
▁productos	-7.28527
▁poate	-7.2882
▁considerando	-7.28823
▁entre	-7.3011
▁vedere	-7.30291
▁señor	-7.30433
▁european	-7.30692
▁aceste	-7.31475
▁unión	-7.3263
▁miembro	-7.33566
▁parlamento	-7.35083
ul	-7.3693
▁pot	-7.37983
▁cuando	-7.38929
▁(1)	-7.38958
°	-7.39387
▁special	-7.3942
▁unui	-7.3974
▁b	-7.39841
▁conformitate	-7.39975
▁i	-7.4153
▁trebui	-7.41628
▁4	-7.41798
▁după	-7.41927
/	-7.42127
▁comunidad	-7.42724
▁membru	-7.42824
▁consiliului	-7.43304
▁s	-7.43343
▁han	-7.43449
▁ceea	-7.43739
▁países	-7.43901
▁către	-7.44281
▁caso	-7.44341
▁disposiciones	-7.4485
▁acuerdo	-7.45476
▁ser	-7.45627
▁regulament	-7.46519
▁aplicación	-7.47537
▁todos	-7.48054
▁europeană	-7.50846
▁lucru	-7.50853
b	-7.51738
▁asemenea	-7.5272
▁5	-7.53146
▁cazul	-7.53361
▁(2)	-7.54618
▁având	-7.55466
▁informe	-7.55961
▁mod	-7.57759
▁anexo	-7.57795
▁debe	-7.57894
▁într	-7.58167
▁presidente	-7.59137
▁nivel	-7.59408
▁dar	-7.60688
▁prevăzute	-7.60836
▁me	-7.60923
▁cum	-7.61717
▁dintre	-7.6251
▁e	-7.6337
"	-7.64286
▁acestea	-7.64682
▁cada	-7.64709
▁control	-7.6478
▁importante	-7.64987
c	-7.65034
▁astfel	-7.65381
▁derechos	-7.65769
▁aplicare	-7.65922
▁cadrul	-7.66391
▁decisión	-7.67097
▁son	-7.67761
se	-7.67857
ului	-7.69865
▁c	-7.70304
▁privire	-7.70377
▁política	-7.70396
▁tanto	-7.70555
▁prezentul	-7.70582
▁cel	-7.70739
?	-7.71004
▁prezenta	-7.71044
▁particular	-7.71698
▁así	-7.72361
▁asupra	-7.72528
▁forma	-7.73078
▁cele	-7.73343
▁tratado	-7.73955
▁pero	-7.74489
▁mercado	-7.74698
▁.	-7.75068
▁información	-7.76153
▁condiciones	-7.76347
▁lor	-7.76443
▁anexa	-7.76878
▁foarte	-7.77392
▁când	-7.77694
▁aceasta	-7.78097
▁vor	-7.80238
▁6	-7.80774
▁precum	-7.81704
▁%	-7.82675
▁está	-7.83074
▁stat	-7.83824
▁statelor	-7.84208
un	-7.85282
es	-7.8541
▁între	-7.85654
▁mi	-7.86106
▁lugar	-7.86354
▁fără	-7.88254
▁siguiente	-7.88351
r	-7.88531
▁todo	-7.89059
▁conform	-7.89204
▁ya	-7.89334
▁unor	-7.89493
▁alte	-7.89897
▁normas	-7.89907
▁durante	-7.89954
▁aplică	-7.90002
▁urmare	-7.90054
▁(3)	-7.91208
▁contra	-7.91228
t	-7.91531
▁mult	-7.9214
▁seguridad	-7.92207
▁desarrollo	-7.92933
▁cuenta	-7.93031
▁comunităţii	-7.93188
▁7	-7.93789
▁faptul	-7.94211
▁oficial	-7.95564
▁muy	-7.95773
▁fin	-7.95868
▁ii	-7.96138
▁până	-7.96575
▁estos	-7.96975
▁sub	-7.97012
▁d	-7.97025
▁procedimiento	-7.97049
▁directivă	-7.97359
▁măsurile	-7.97525
▁social	-7.97697
▁10	-7.98205
▁deben	-7.98434
▁comité	-7.99274
▁país	-7.99632
▁autoridades	-8.00502
▁esto	-8.00919
▁dicho	-8.00944
▁conformidad	-8.01011
▁será	-8.0106
▁există	-8.01334
▁años	-8.01522
▁noi	-8.01996
▁ayuda	-8.02684
▁timp	-8.0269
▁măsuri	-8.02964
▁sector	-8.02987
▁derecho	-8.03559
d	-8.03711
m	-8.04656
▁europeas	-8.05249
▁competente	-8.05364
▁menţionate	-8.0542
▁propuesta	-8.05493
▁orice	-8.05598
▁acord	-8.05599
▁puede	-8.05863
▁haya	-8.05966
▁visto	-8.06033
▁uniunii	-8.06335
▁arreglo	-8.06658
▁mare	-8.06864
▁personas	-8.07689
▁multe	-8.07861
▁8	-8.0789
▁respecto	-8.07959
▁dori	-8.08316
▁face	-8.08395
▁uniunea	-8.08468
▁protección	-8.08819
▁sido	-8.09441
▁dle	-8.10354
▁priveşte	-8.10615
▁decât	-8.10629
▁otros	-8.10668
▁general	-8.10876
▁hecho	-8.11448
▁señora	-8.1146
▁he	-8.11558
▁antes	-8.11656
de	-8.11958
▁trabajo	-8.12203
▁nos	-8.1262
▁estas	-8.12836
▁podrá	-8.13043
▁fiecare	-8.13061
▁necesare	-8.13141
▁sea	-8.13352
▁euro	-8.13489
▁produse	-8.13858
▁necesario	-8.14326
▁acesta	-8.14593
▁are	-8.15046
▁cât	-8.15126
▁podrán	-8.15766
mos	-8.16677
▁plazo	-8.16976
▁muncă	-8.17034
▁garantizar	-8.17119
l	-8.17309
▁ani	-8.17691
▁mismo	-8.17747
▁parlamentul	-8.18253
▁empresas	-8.18344
▁raport	-8.18548
▁9	-8.18627
▁iar	-8.18849
▁situación	-8.18977
▁económica	-8.19223
▁important	-8.19336
▁creo	-8.1955
▁sistema	-8.19732
▁datos	-8.19824
▁porque	-8.20487
▁domeniul	-8.20519
▁«	-8.20965
▁15	-8.21089
▁deoarece	-8.21394
▁ciudadanos	-8.21793
▁putea	-8.22447
▁doar	-8.22723
▁común	-8.22766
▁12	-8.23076
▁consiliul	-8.23176
▁parlamentului	-8.23265
▁crisis	-8.23283
▁despre	-8.23399
▁cualquier	-8.23465
▁hacer	-8.241
▁embargo	-8.24608
▁acestor	-8.2489
▁dată	-8.25707
▁están	-8.26104
▁necesar	-8.26429
▁atunci	-8.26442
▁acestui	-8.26498
▁dos	-8.26672
▁cauză	-8.26918
do	-8.27127
▁ello	-8.27217
▁comunidades	-8.27497
▁cuestión	-8.2762
u	-8.28031
▁20	-8.28131
▁sale	-8.28286
▁acestei	-8.28395
▁reprezintă	-8.28623
▁vigoare	-8.28839
▁año	-8.29153
mente	-8.29801
▁servicios	-8.29999
▁adoptă	-8.3024
▁tiene	-8.30309
▁desde	-8.30392
▁todas	-8.3059
▁produselor	-8.30591
▁vez	-8.3084
▁state	-8.30862
▁nacionales	-8.30888
▁baza	-8.30998
▁acum	-8.31084
▁referitoare	-8.31277
▁dispuesto	-8.313
▁18	-8.31384
▁tratatul	-8.31494
ar	-8.31621
▁preşedinte	-8.32021
▁debemos	-8.32431
▁punto	-8.32677
▁hemos	-8.32713
re	-8.32713
▁împotriva	-8.32868
▁avem	-8.33266
▁favor	-8.33278
▁data	-8.33397
au	-8.33872
▁partir	-8.34703
▁cred	-8.34854
▁marco	-8.35021
▁hay	-8.35026
▁problema	-8.35264
▁dispoziţiile	-8.35426
▁(4)	-8.35486
▁stabilite	-8.35518
▁tiempo	-8.35731
▁11	-8.36292
▁posible	-8.36305
▁lista	-8.37717
▁30	-8.37827
▁letra	-8.38142
te	-8.3817
▁día	-8.38325
▁economice	-8.38455
▁mayor	-8.38543
▁base	-8.38604
▁refiere	-8.38686
▁mediante	-8.38894
▁înainte	-8.39038
▁13	-8.3914
▁tenemos	-8.39182
▁comunităţilor	-8.3931
▁hasta	-8.39397
▁17	-8.39438
▁14	-8.39503
▁dicha	-8.39539
▁menos	-8.39566
▁atât	-8.3973
▁período	-8.3987
▁)	-8.40436
▁lit	-8.40608
▁producción	-8.40767
▁vigor	-8.40805
▁1.	-8.40814
▁materia	-8.40852
▁obstante	-8.41513
▁tal	-8.41601
▁medio	-8.41788
▁ahora	-8.41818
ţi	-8.41921
▁¿	-8.42176
▁ni	-8.42525
▁produsele	-8.42682
▁tipo	-8.42713
▁statul	-8.43199
▁sa	-8.43275
▁numai	-8.43281
▁autorităţile	-8.43522
da	-8.43699
▁ámbito	-8.43771
▁cooperación	-8.43881
▁relación	-8.439
▁31	-8.43918
▁vă	-8.44129
▁aş	-8.44235
▁tener	-8.44584
▁grupo	-8.45089
▁însă	-8.4556
▁bien	-8.4597
▁condiţiile	-8.4624
▁apoyo	-8.46563
▁aplicarea	-8.47476
▁pueden	-8.47597
▁decizie	-8.47804
▁dictamen	-8.47817
▁anumite	-8.48015
▁2.	-8.48468
▁acestora	-8.48547
▁vista	-8.48658
▁régimen	-8.48694
▁fecha	-8.48874
▁deberá	-8.48968
▁in	-8.4909
▁;	-8.49136
▁gran	-8.49265
▁texto	-8.49385
▁punere	-8.49401
▁două	-8.49406
▁relativa	-8.49623
▁primul	-8.49654
▁primer	-8.49686
▁puţin	-8.4976
▁transporte	-8.49787
▁permite	-8.49951
▁referencia	-8.49964
▁comitetului	-8.50178
▁sólo	-8.50491
▁vom	-8.51458
▁efectos	-8.51658
la	-8.51846
▁partea	-8.51981
▁raportul	-8.52049
▁nevoie	-8.52227
▁16	-8.52341
▁nici	-8.52509
▁termen	-8.5262
▁programa	-8.52754
▁zona	-8.52976
en	-8.53138
▁iii	-8.53294
▁otro	-8.53401
▁gestión	-8.5354
▁ţări	-8.54058
▁resolución	-8.54108
▁momento	-8.54267
▁manera	-8.54349
▁cuya	-8.54397
▁economică	-8.54492
▁ci	-8.54792
▁además	-8.54805
▁objetivos	-8.54806
▁autoridad	-8.54972
▁caz	-8.55027
▁încă	-8.55045
▁hayan	-8.55142
á	-8.55575
▁financiare	-8.55817
▁otras	-8.56317
▁asigura	-8.56354
▁rând	-8.5702
▁naţionale	-8.57053
▁número	-8.5712
▁objetivo	-8.57257
▁deja	-8.57312
▁uno	-8.57385
▁(5)	-8.57402
▁humanos	-8.57634
▁internacional	-8.5764
▁gustaría	-8.57768
▁vederea	-8.58123
▁avizul	-8.58211
▁comunitare	-8.58393
▁debería	-8.58516
▁directive	-8.58573
▁nuestra	-8.58621
rea	-8.58889
▁drepturile	-8.59068
▁anterior	-8.59372
▁deberán	-8.59469
▁dichas	-8.59525
▁toda	-8.59674
▁serán	-8.59726
▁solo	-8.59976
▁cea	-8.60094
▁drepturilor	-8.6042
▁nacional	-8.60575
▁debate	-8.60659
▁estamos	-8.60844
▁avea	-8.60883
▁objeto	-8.6094
▁urmează	-8.61193
▁sino	-8.61238
▁sean	-8.61306
▁informaţii	-8.61322
▁aplicable	-8.6249
▁hoy	-8.62599
▁decizia	-8.62891
▁dezvoltare	-8.632
▁siempre	-8.63221
▁loc	-8.63277
▁noastre	-8.63405
▁europeos	-8.63472
▁procedura	-8.63592
▁inclusiv	-8.64232
▁adoptado	-8.64234
▁nombre	-8.64462
▁solicitud	-8.6474
▁legislación	-8.64778
▁prezentei	-8.64812
▁comisie	-8.64819
îşi	-8.64906
▁establece	-8.64958
▁prevăzută	-8.65016
▁numele	-8.65101
▁necesarias	-8.65175
▁diciembre	-8.65479
▁tuturor	-8.65528
▁uso	-8.65543
▁propunerea	-8.6577
▁putem	-8.65943
am	-8.66068
▁decembrie	-8.66627
▁animales	-8.66908
▁prima	-8.67281
▁final	-8.67463
▁totuşi	-8.67584
▁escrito	-8.6773
▁scopul	-8.68368
▁constituye	-8.68636
▁luni	-8.68683
nă	-8.6906
▁nuevo	-8.6922
▁decir	-8.69325
▁otra	-8.69552
▁según	-8.69585
".	-8.6961
▁previstas	-8.6969
y	-8.69777
▁requisitos	-8.69835
▁politică	-8.7001
▁dentro	-8.70205
▁establecido	-8.70216
▁instituire	-8.70336
▁favoarea	-8.70604
▁votat	-8.70778
▁hace	-8.70945
▁plan	-8.71007
▁ese	-8.71009
▁después	-8.71049
▁última	-8.71224
▁chiar	-8.71409
g	-8.71414
▁ultima	-8.71542
▁actual	-8.71632
▁omului	-8.71664
▁bază	-8.71867
tă	-8.72204
lo	-8.72214
▁establecer	-8.72308
▁presidenta	-8.72438
▁modificación	-8.72837
▁terceros	-8.73039
▁comune	-8.7305
▁drept	-8.73337
▁scris	-8.73376
▁nuestros	-8.73421
▁relativas	-8.73536
▁calidad	-8.73556
▁următorul	-8.73576
▁încât	-8.73615
▁tres	-8.73792
▁doresc	-8.74106
▁estrategia	-8.74158
ó	-8.74349
▁dreptul	-8.74379
▁trei	-8.74411
▁astăzi	-8.74916
▁îi	-8.74939
▁zi	-8.75035
▁19	-8.75124
▁medida	-8.75233
▁meses	-8.75254
▁puedan	-8.75381
▁sectorul	-8.75533
▁000	-8.75803
on	-8.75974
▁re	-8.76332
▁total	-8.76339
ii	-8.7636
▁mercancías	-8.76404
▁an	-8.76736
ți	-8.76845
▁relativo	-8.76961
şi	-8.77077
ndo	-8.77334
▁27	-8.77566
▁eso	-8.77639
▁trata	-8.77861
▁importación	-8.78042
▁direct	-8.78063
▁casos	-8.7823
▁origen	-8.78381
▁clar	-8.78858
▁procedimientos	-8.78908
▁segundo	-8.79142
▁carne	-8.79247
▁millones	-8.79268
▁territorio	-8.79295
▁correspondiente	-8.79586
▁siguientes	-8.79876
▁tienen	-8.79897
▁ţările	-8.80033
▁futuro	-8.80166
▁producto	-8.80186
▁celor	-8.80195
▁22	-8.80413
▁constitutivo	-8.80576
▁consider	-8.80683
▁financiar	-8.80945
▁dichos	-8.81013
os	-8.81129
▁votado	-8.81139
▁diferite	-8.81258
▁îl	-8.8135
▁regulamentului	-8.81374
▁comunitate	-8.81392
▁prezent	-8.81515
▁nuestro	-8.81529
▁políticas	-8.81671
an	-8.81704
▁comunitario	-8.81804
▁25	-8.81847
▁mă	-8.8193
▁proceso	-8.81967
▁conforme	-8.8205
▁actividades	-8.8214
▁competentes	-8.8217
▁recursos	-8.82338
▁punct	-8.82647
▁financiera	-8.82658
▁acceso	-8.82682
▁junio	-8.8277
▁dl	-8.82827
▁estoy	-8.82853
▁publice	-8.82966
▁problemas	-8.82969
▁algunos	-8.82985
▁tras	-8.83077
▁prezentului	-8.83111
▁dispoziţii	-8.83289
▁sistem	-8.83462
▁virtud	-8.83563
▁energía	-8.83741
▁comercio	-8.83941
2	-8.84286
▁investigación	-8.84304
▁comunitaria	-8.84494
▁ejemplo	-8.84559
▁iunie	-8.8491
▁21	-8.85089
▁bine	-8.85448
▁persoane	-8.85565
▁temeiul	-8.85585
▁teritoriul	-8.85608
▁intră	-8.85793
▁especialmente	-8.85854
▁anul	-8.85872
▁presupuesto	-8.86124
▁politica	-8.86126
▁industria	-8.8625
▁domnule	-8.86278
▁23	-8.86288
▁artículos	-8.86505
▁specifice	-8.86532
▁previsto	-8.86542
▁terţe	-8.86581
▁statului	-8.866
▁salud	-8.86613
▁comisar	-8.86849
▁partes	-8.87078
▁productores	-8.87099
▁respective	-8.87231
▁modo	-8.87246
▁certificado	-8.87249
▁procesul	-8.8729
▁económico	-8.87322
▁comună	-8.87336
as	-8.87381
▁mundo	-8.87426
▁trabajadores	-8.8746
▁cambio	-8.87636
it	-8.87754
▁cabo	-8.88364
▁fiind	-8.88384
▁elementos	-8.88574
▁valor	-8.88725
▁importancia	-8.88745
▁organización	-8.88778
▁gobierno	-8.88836
▁3.	-8.88929
án	-8.88997
▁especial	-8.89048
▁mejor	-8.8913
▁principal	-8.89325
at	-8.89418
▁utilizarea	-8.89518
al	-8.8954
▁dispoziţiilor	-8.8964
f	-8.89644
▁înlocuieşte	-8.89876
▁g	-8.89943
▁(6)	-8.89995
▁quiero	-8.9002
▁responsabilidad	-8.90049
▁les	-8.90429
el	-8.90432
▁posibil	-8.90736
▁primera	-8.90838
▁piaţă	-8.90873
▁último	-8.90906
▁fac	-8.91059
▁empleo	-8.91086
▁señorías	-8.91212
▁gracias	-8.91376
▁transport	-8.91418
▁fondos	-8.91562
▁podemos	-8.91638
▁următoarele	-8.91675
mi	-8.91794
▁faţă	-8.92112
▁menţionat	-8.92327
▁28	-8.92398
▁dezvoltarea	-8.92422
▁párrafo	-8.92576
▁trate	-8.92664
▁său	-8.92745
▁necesidad	-8.92827
▁timpul	-8.92862
▁parlament	-8.92874
▁euros	-8.92902
▁respectiv	-8.93002
▁pueda	-8.93102
▁cei	-8.93169
▁autorización	-8.93365
▁exportación	-8.93649
▁l	-8.93678
▁tan	-8.93889
▁pieţei	-8.93908
▁directivei	-8.9392
▁fel	-8.94043
▁calitate	-8.94116
▁acuerdos	-8.94191
▁perioadă	-8.94446
▁v	-8.94551
▁președinte	-8.94673
▁sensul	-8.94707
▁comunitar	-8.94814
▁necesară	-8.94892
▁mucho	-8.95012
▁ia	-8.95133
▁adoptar	-8.95216
▁propuestas	-8.95292
▁nou	-8.95323
▁24	-8.95347
▁acordul	-8.95586
▁ianuarie	-8.95625
▁establecimiento	-8.95642
▁enero	-8.95854
▁informaţiile	-8.9595
▁altă	-8.96437
▁considerare	-8.96554
▁adoptate	-8.96579
▁aşa	-8.96623
▁exemplu	-8.96678
▁poder	-8.96722
rii	-8.96827
▁făcut	-8.96936
▁ante	-8.97014
▁cantidad	-8.97158
▁nueva	-8.97887
▁noastră	-8.97906
▁rusia	-8.98017
▁aș	-8.98057
▁co	-8.98143
▁:	-8.9827
▁estar	-8.98308
▁aici	-8.9835
▁aduce	-8.98484
▁alineatul	-8.98698
▁nivelul	-8.98757
1,	-8.98777
▁doilea	-8.99078
▁julio	-8.99093
▁responsabil	-8.9912
▁măsură	-8.99214
▁acelaşi	-8.99254
▁publicación	-8.99255
▁instituciones	-8.99409
▁autoritatea	-8.99567
▁resultados	-8.99645
▁demás	-8.99896
▁ai	-8.99937
▁competencia	-9.0002
▁urmă	-9.00087
▁mercados	-9.00123
▁financiación	-9.00244
▁importe	-9.00358
▁evaluación	-9.00386
▁iulie	-9.00453
▁probleme	-9.00566
▁acción	-9.00725
▁fapt	-9.00915
▁principio	-9.00985
▁fondo	-9.01176
▁condiţii	-9.01186
▁criterios	-9.01194
p	-9.01283
▁decisiones	-9.01312
ele	-9.01477
▁legate	-9.01528
uri	-9.0163
▁serie	-9.01715
▁origine	-9.0172
▁(1),	-9.01817
no	-9.01834
▁agricole	-9.01963
▁legătură	-9.02104
▁esa	-9.02412
▁cantidades	-9.02471
▁declaración	-9.02579
▁avut	-9.02612
▁bună	-9.02681
▁momentul	-9.02686
▁proyecto	-9.02691
”	-9.02811
comercialización	-9.02845
▁sociale	-9.03248
▁directamente	-9.0359
▁problemă	-9.03654
▁modificat	-9.03781
▁cee	-9.03823
▁respecta	-9.03827
▁continuare	-9.03858
▁politicii	-9.04377
▁perjuicio	-9.04381
▁nuevos	-9.04416
▁nosotros	-9.04522
",	-9.04557
▁qué	-9.04589
▁unde	-9.04618
▁»	-9.04665
▁mundial	-9.04779
▁muchos	-9.04879
▁perioada	-9.04893
▁fundamental	-9.04966
▁servicii	-9.05014
▁cererea	-9.05086
▁text	-9.05092
▁situaţia	-9.05209
▁numărul	-9.0524
▁determinados	-9.05331
▁precios	-9.05414
▁ambiente	-9.05452
ro	-9.05473
▁libre	-9.05494
▁personal	-9.05597
area	-9.05809
▁date	-9.05962
▁urma	-9.06044
▁comun	-9.06097
▁empresa	-9.06347
▁diario	-9.0664
▁existe	-9.06943
▁26	-9.06965
▁unele	-9.06972
▁aplicables	-9.07016
▁determinadas	-9.07347
▁înseamnă	-9.07493
ate	-9.07666
▁haber	-9.07688
▁stabilire	-9.07788
▁misma	-9.07953
▁interior	-9.08109
▁unite	-9.08271
▁corespunzătoare	-9.08305
▁papel	-9.08433
▁economía	-9.0851
▁tip	-9.0861
▁comisario	-9.08696
▁comercial	-9.08942
▁unul	-9.09206
▁residuos	-9.09274
das	-9.09288
▁mediu	-9.09313
▁global	-9.0933
▁aibă	-9.09363
▁acta	-9.09441
dos	-9.09492
▁controles	-9.09548
▁lisboa	-9.09674
▁resulta	-9.09842
▁tratat	-9.09914
▁cerinţele	-9.09915
▁lisabona	-9.10027
▁stabilit	-9.10166
▁paragraf	-9.10351
▁consumidores	-9.10415
▁printr	-9.10428
▁mea	-9.10428
▁u	-9.10487
▁sistemas	-9.10627
▁república	-9.10774
▁mici	-9.10776
▁plus	-9.10794
▁ejercicio	-9.1086
▁opinión	-9.10872
▁suntem	-9.10987
▁29	-9.11084
▁servicio	-9.11086
▁cuestiones	-9.1111
▁cont	-9.11169
▁mejorar	-9.11194
▁región	-9.11268
▁quisiera	-9.11367
▁regiones	-9.11526
▁domnilor	-9.11573
▁mari	-9.11925
▁algo	-9.1193
▁pesca	-9.11966
▁prevăzut	-9.11997
▁nuevas	-9.11999
itatea	-9.12026
▁poată	-9.12046
▁utilización	-9.12049
▁piaţa	-9.12064
▁público	-9.12214
▁importantes	-9.12408
▁ajutor	-9.1242
▁stabileşte	-9.12445
▁aplicar	-9.12541
▁mayoría	-9.12653
▁aceea	-9.12768
▁facă	-9.12848
▁alt	-9.12923
▁era	-9.13074
▁organismos	-9.13145
▁modificare	-9.13151
▁mujeres	-9.13178
é	-9.13208
▁sociedad	-9.13414
▁economic	-9.13468
▁imediat	-9.1353
▁protecţia	-9.13676
▁securitate	-9.13735
▁ponente	-9.13757
▁doamnelor	-9.13852
▁cuanto	-9.13876
▁sustancias	-9.14078
▁asimismo	-9.14144
▁programas	-9.14242
ía	-9.14429
▁incluso	-9.14845
ado	-9.15112
▁atingere	-9.15464
▁cumplimiento	-9.15562
▁tales	-9.15566
▁necesitamos	-9.15599
▁atención	-9.15666
▁libertad	-9.15917
▁vida	-9.15944
▁jurnalul	-9.15989
2,	-9.16131
▁valores	-9.16133
▁iv	-9.16157
▁(2),	-9.1624
ción	-9.16302
▁altor	-9.16319
▁bajo	-9.16333
▁presidencia	-9.166
z	-9.16993
▁resultado	-9.17052
▁sens	-9.1709
▁unidos	-9.1712
▁operaciones	-9.17233
ri	-9.17271
»	-9.17299
▁aquí	-9.17315
▁milioane	-9.17379
▁medios	-9.17494
▁export	-9.17494
▁creación	-9.17725
▁conviene	-9.17738
▁riesgo	-9.17933
▁valoarea	-9.17948
▁ele	-9.17968
▁europei	-9.18057
▁2020	-9.18129
▁cooperare	-9.1869
▁ejecución	-9.18694
▁consecuencia	-9.18767
▁procedură	-9.18823
▁sistemul	-9.18903
▁organismo	-9.18949
▁importantă	-9.19045
▁días	-9.19047
▁precio	-9.19171
▁peste	-9.19217
▁ales	-9.19255
▁comunicación	-9.19317
▁europeni	-9.19404
▁aunque	-9.19492
▁práctica	-9.19495
▁tehnice	-9.19581
▁único	-9.19587
are	-9.19631
▁2010	-9.19653
▁vehículos	-9.19795
▁financiară	-9.19802
▁acciones	-9.19812
▁viitor	-9.19874
▁import	-9.19905
▁tema	-9.19943
▁acesteia	-9.19977
▁evitar	-9.19989
▁compromiso	-9.20074
▁aún	-9.20262
▁principios	-9.2038
▁f	-9.20513
▁grecia	-9.2054
▁interés	-9.20614
▁100	-9.20658
▁politice	-9.20658
▁negociaciones	-9.20898
▁dado	-9.21114
▁hacia	-9.21145
▁tot	-9.21154
▁persona	-9.21218
▁crecimiento	-9.21291
▁administrative	-9.21353
▁intervención	-9.21356
▁documentos	-9.21385
▁motiv	-9.21386
▁organizaciones	-9.21644
▁stabilirea	-9.21679
▁través	-9.21708
▁central	-9.21718
ării	-9.2186
▁lucha	-9.21975
▁esté	-9.21978
▁zile	-9.21985
▁privește	-9.22061
▁normele	-9.22145
▁suplimentare	-9.22163
▁fue	-9.2218
▁cual	-9.22244
▁scop	-9.22266
▁prevede	-9.22492
▁efecto	-9.22557
▁publică	-9.22594
▁destinate	-9.22678
▁sentido	-9.2277
."	-9.22925
▁împreună	-9.23015
▁măsurilor	-9.23082
▁ţară	-9.23238
▁nostru	-9.23269
▁establecen	-9.23302
▁comitetul	-9.23366
▁gastos	-9.23443
▁bce	-9.23529
▁comerciale	-9.23585
▁sper	-9.23925
▁documento	-9.23927
▁vi	-9.23992
▁vamale	-9.24169
▁cuyo	-9.24174
▁suficiente	-9.24286
▁teniendo	-9.24453
▁*	-9.24485
▁protecţie	-9.24508
▁asuntos	-9.24556
▁existente	-9.24695
▁nuestras	-9.24902
▁tribunal	-9.24905
▁iniciativa	-9.25003
▁târziu	-9.25384
▁prezintă	-9.25412
▁posibilitatea	-9.25603
▁establecidas	-9.2577
▁sigue	-9.26044
▁acestuia	-9.26068
▁presentación	-9.26355
▁entrada	-9.26825
▁función	-9.2688
▁preşedintă	-9.2688
▁elementele	-9.27165
▁informează	-9.27173
▁oportunidad	-9.2733
▁cámara	-9.27367
▁intereses	-9.27402
▁poner	-9.27419
▁luate	-9.27704
▁seguir	-9.27794
▁pública	-9.278
▁espero	-9.27843
▁sustituirá	-9.27868
▁tercer	-9.28127
fr	-9.28189
▁da	-9.28342
▁criză	-9.284
▁usted	-9.28571
▁mínimo	-9.2865
▁obiectul	-9.2868
pl	-9.28687
▁debido	-9.28759
▁motive	-9.2877
▁crearea	-9.28776
▁pune	-9.28829
▁cumplir	-9.28882
▁estén	-9.28941
▁ajutorul	-9.29005
▁grupului	-9.29041
▁menţionată	-9.29059
▁igual	-9.2916
▁contemplados	-9.29226
▁apartados	-9.2941
▁energie	-9.29531
▁garantía	-9.29532
▁adoptarea	-9.29635
ând	-9.29732
▁certificados	-9.2974
▁permanente	-9.29783
▁comunitară	-9.29792
▁asigure	-9.29833
▁spus	-9.29837
▁reglementare	-9.29999
▁posibilidad	-9.30341
▁irlanda	-9.30516
▁conjunto	-9.30545
▁grupos	-9.307
▁entrará	-9.30817
▁votación	-9.30976
▁obligaciones	-9.30998
▁funcionamiento	-9.31093
▁sprijin	-9.31145
▁actividad	-9.31322
ba	-9.31369
▁tardar	-9.31635
▁obligatoriu	-9.31699
▁sănătate	-9.31711
▁schimb	-9.31713
▁ellos	-9.31858
▁instrumentos	-9.3197
▁puesto	-9.32127
▁domeniu	-9.32249
▁china	-9.32266
▁referă	-9.32425
▁efectuate	-9.32945
9/	-9.32952
▁anual	-9.33027
▁consideră	-9.33217
▁interne	-9.33283
▁registro	-9.33328
▁2002	-9.33341
▁sociales	-9.33342
▁internacionales	-9.33376
▁moment	-9.33388
▁pct	-9.33422
▁crear	-9.33436
▁pescuit	-9.33655
▁largo	-9.33674
▁adhesión	-9.33689
▁suma	-9.33732
▁ver	-9.33777
▁socială	-9.33932
▁meu	-9.34059
h	-9.34093
▁proyectos	-9.34111
▁deberían	-9.34253
▁mediului	-9.34318
▁animale	-9.34356
▁podría	-9.34381
▁animal	-9.34386
▁excepţia	-9.34461
▁produs	-9.34464
▁orden	-9.3453
▁donde	-9.34564
▁datelor	-9.34565
▁permitir	-9.34567
▁extrem	-9.34603
▁reducir	-9.34607
▁producţie	-9.34668
▁establecidos	-9.34814
ează	-9.34854
▁(7)	-9.34858
▁utilizate	-9.34948
▁asunto	-9.35023
▁50	-9.35085
▁procedurii	-9.3515
▁1999	-9.35177
▁pago	-9.35227
▁mar	-9.35285
▁comunitatea	-9.35341
▁relaciones	-9.35418
▁carácter	-9.35491
ta	-9.35531
▁dintr	-9.35538
ca	-9.3562
▁câteva	-9.3572
▁mulţumesc	-9.35795
▁punctul	-9.35841
▁razón	-9.35845
numitor	-9.35889
▁legislaţia	-9.35896
▁participación	-9.35975
▁adevărat	-9.35997
▁inversión	-9.35999
▁fundamentales	-9.36218
▁li	-9.36265
▁stabilită	-9.36392
▁obligatorio	-9.36422
▁solicitudes	-9.36459
▁sistemului	-9.36492
▁referitor	-9.36612
▁aprobación	-9.36687
▁respuesta	-9.36702
▁doamnă	-9.36842
▁grave	-9.36842
▁respectarea	-9.37144
▁comunitarias	-9.3718
▁competentă	-9.37321
los	-9.37428
▁civil	-9.37512
▁algunas	-9.37525
▁condiţia	-9.37533
▁capital	-9.37541
▁află	-9.37605
▁población	-9.37614
▁2008	-9.3762
▁diferentes	-9.37731
▁presentar	-9.37874
▁términos	-9.37933
▁m	-9.38005
aţi	-9.38024
▁generale	-9.3828
▁asigură	-9.38369
▁específicas	-9.38469
▁formación	-9.3852
ui	-9.38529
▁siendo	-9.38549
▁modificată	-9.38573
▁yo	-9.38657
▁fuera	-9.38834
▁bun	-9.39006
▁internaţionale	-9.39008
▁zonas	-9.39098
▁todavía	-9.39118
▁alimentos	-9.39145
▁propuneri	-9.39211
▁spre	-9.39233
▁cuentas	-9.39242
▁curs	-9.39451
▁democracia	-9.39591
▁agrícola	-9.39616
▁consiguiente	-9.3967
▁comerciales	-9.39827
▁adoptat	-9.39839
▁consecinţă	-9.3996
▁unos	-9.39992
▁persoanelor	-9.40016
▁escala	-9.40092
ciones	-9.40137
▁tendrá	-9.40143
▁mantener	-9.40178
▁ningún	-9.40198
▁mencionado	-9.40309
▁procedentes	-9.40442
2/	-9.40454
▁disposición	-9.4049
▁vamal	-9.40529
▁tomar	-9.40543
▁máximo	-9.40571
4	-9.40686
▁problemele	-9.40724
▁speciale	-9.40848
▁modul	-9.40871
▁locuri	-9.40993
▁superior	-9.4101
▁octubre	-9.41102
▁modifica	-9.41247
▁mes	-9.41258
▁reducción	-9.41317
▁activitatea	-9.41422
▁varios	-9.41496
▁puntos	-9.41509
▁semillas	-9.41572
5	-9.41728
pt	-9.41788
me	-9.41819
▁voi	-9.41883
ra	-9.41907
▁octombrie	-9.41988
▁bune	-9.42045
▁políticos	-9.42112
▁aplicará	-9.42259
▁introducerea	-9.4231
▁4.	-9.42563
sau	-9.42625
▁agrícolas	-9.42638
▁muchas	-9.42675
▁2000	-9.42739
▁autorităţilor	-9.42752
▁hora	-9.42802
▁falta	-9.42895
ne	-9.42899
▁convenio	-9.4293
ată	-9.42998
▁sí	-9.43009
▁esos	-9.43011
▁grupul	-9.43044
și	-9.43163
▁necesaria	-9.43248
▁agricultura	-9.43318
ia	-9.43328
▁funcţie	-9.43428
▁constituie	-9.43465
▁modelo	-9.43536
▁obiectivele	-9.4354
▁generales	-9.43553
▁aspecte	-9.43646
▁articol	-9.4365
▁eu	-9.43767
▁posición	-9.43818
▁claro	-9.43825
▁costes	-9.43969
1	-9.43992
▁financiero	-9.44015
▁contenido	-9.44153
▁fundamentale	-9.4421
▁propunere	-9.44429
▁regional	-9.44677
▁cauza	-9.44677
▁realmente	-9.44776
▁real	-9.44809
▁raportului	-9.44819
▁procede	-9.44969
▁red	-9.45021
▁conveniente	-9.45054
▁inmediatamente	-9.4506
▁animalelor	-9.45137
▁exterior	-9.45175
▁cómo	-9.45208
▁ori	-9.4521
▁criza	-9.45249
▁mayo	-9.45352
▁capacidad	-9.45434
▁prácticas	-9.45458
▁(8)	-9.45637
▁financieros	-9.45655
▁condado	-9.45722
▁seama	-9.45756
▁contempladas	-9.45885
▁tengan	-9.45919
▁nomenclatura	-9.4592
▁alimentare	-9.45972
▁ei	-9.45995
eze	-9.46125
▁schengen	-9.46144
▁pasado	-9.46203
▁queda	-9.46313
▁marzo	-9.46456
ci	-9.46473
▁ninguna	-9.46482
▁siguranţă	-9.46679
▁ţara	-9.46736
▁supuesto	-9.46768
▁apoyar	-9.46784
▁adopción	-9.46792
▁importaciones	-9.46996
itate	-9.47108
▁parece	-9.47132
▁asociación	-9.47134
▁energética	-9.47268
▁destinados	-9.47377
di	-9.47424
▁métodos	-9.47442
▁martie	-9.47588
▁1993	-9.47698
▁materie	-9.47816
▁eficaz	-9.47963
▁representante	-9.48108
▁facem	-9.48147
nos	-9.4818
▁primero	-9.48287
6/	-9.4835
▁spun	-9.48364
▁facilitar	-9.48427
▁modifică	-9.48592
▁program	-9.48601
▁serviciile	-9.48635
▁lograr	-9.48655
▁tenga	-9.48711
▁únicamente	-9.48752
▁nouă	-9.48993
ei	-9.49
▁doua	-9.49226
▁țări	-9.49391
▁llevar	-9.49509
▁buques	-9.49559
▁sprijinul	-9.49582
▁căror	-9.49594
▁deberíamos	-9.49647
▁climatice	-9.4987
▁oficina	-9.49899
▁aspectos	-9.49935
▁cazuri	-9.49944
▁técnicas	-9.50044
▁aquellos	-9.50261
▁duda	-9.50441
▁acţiune	-9.50506
▁celelalte	-9.50509
▁număr	-9.50776
3	-9.50783
▁cooperarea	-9.50849
▁decizii	-9.50911
verbal	-9.50932
▁rol	-9.51139
▁dvs	-9.51246
▁aumento	-9.51258
▁afaceri	-9.51296
▁întreprinderi	-9.51349
▁climático	-9.51394
▁esfuerzos	-9.51394
▁solicită	-9.51495
▁aspect	-9.51613
▁dlui	-9.51659
▁comitatul	-9.51661
▁contexto	-9.51738
▁continua	-9.51744
▁locul	-9.5177
▁t	-9.51789
(	-9.51828
▁politici	-9.5188
▁supervisión	-9.51958
3,	-9.52076
▁naciones	-9.52547
▁profesional	-9.5256
▁tratamiento	-9.52569
▁cerere	-9.526
▁preşedintele	-9.52644
▁întreag	-9.52686
▁italia	-9.52705
▁proteger	-9.52818
▁normelor	-9.52824
▁instrumento	-9.52924
▁explotación	-9.52979
▁începând	-9.5298
▁țările	-9.52982
▁lui	-9.5305
▁aplica	-9.53074
▁estabilidad	-9.53118
▁consumo	-9.53193
▁crea	-9.53265
▁controlul	-9.53286
▁1998	-9.53455
▁frente	-9.53581
▁solidaridad	-9.53642
▁cetăţenilor	-9.53687
▁adopte	-9.53727
▁datele	-9.53757
▁propia	-9.53865
▁enfoque	-9.53928
▁aplicabile	-9.53974
▁circulación	-9.53975
▁pas	-9.5399
▁cohesión	-9.54126
emos	-9.54128
▁pregunta	-9.54225
▁programul	-9.54309
▁adecvate	-9.54404
▁límite	-9.54445
▁procedurile	-9.54488
▁revisión	-9.54553
▁p	-9.54719
▁serviciilor	-9.54738
▁vorba	-9.5482
▁republica	-9.54828
▁tratatului	-9.5487
▁dumneavoastră	-9.5492
5/	-9.55011
▁măsura	-9.55055
▁2001	-9.55115
▁mientras	-9.55258
▁consiliu	-9.55382
▁90	-9.55426
▁análisis	-9.55536
▁pues	-9.55801
▁permită	-9.55857
urile	-9.55887
▁reducerea	-9.55978
▁anului	-9.55979
▁solución	-9.56
▁actualmente	-9.56026
v	-9.56114
▁presentado	-9.56126
▁obligación	-9.56282
▁diputados	-9.56304
▁grandes	-9.56385
▁pre	-9.56386
▁material	-9.56806
▁proceduri	-9.56894
▁figuran	-9.56992
▁ajustan	-9.57122
▁accesul	-9.57172
▁întreprinderile	-9.57408
▁reino	-9.57515
▁desigur	-9.57531
adevăr	-9.5755
▁asistencia	-9.57563
las	-9.57616
▁nc	-9.57693
▁prea	-9.5775
▁internaţional	-9.57773
ada	-9.57783
▁relativos	-9.57806
▁destino	-9.57878
▁dorim	-9.57924
▁noviembre	-9.57941
▁externe	-9.57995
ados	-9.58019
▁cetăţenii	-9.58033
▁îm	-9.58044
▁alcanzar	-9.58068
▁transparencia	-9.58068
▁dinero	-9.58302
▁dirección	-9.58323
ilor	-9.58417
▁aduanero	-9.58445
▁legales	-9.58577
▁acordă	-9.58633
▁aplicarán	-9.587
▁consumatorilor	-9.58705
▁comunes	-9.5872
▁sería	-9.58721
▁ayudar	-9.58811
▁include	-9.59028
▁1995	-9.59082
▁principales	-9.59127
▁supraveghere	-9.59206
▁crizei	-9.5927
▁mencionados	-9.59279
▁motivos	-9.59315
▁norme	-9.59365
▁noiembrie	-9.59375
▁modalidades	-9.59375
▁obiective	-9.59386
▁persoanele	-9.59501
▁queremos	-9.59525
▁emisiones	-9.59535
▁2009	-9.59546
▁circulaţie	-9.59589
▁previa	-9.59625
▁últimos	-9.59663
▁oameni	-9.59681
▁proces	-9.59726
▁textul	-9.59795
▁marca	-9.5989
▁coordinación	-9.59954
▁sostenible	-9.60148
▁acordului	-9.60473
▁contemplado	-9.60478
▁realizar	-9.60493
▁1990	-9.60509
▁salut	-9.60587
▁riesgos	-9.60724
▁nicio	-9.60771
▁tipos	-9.60824
▁afara	-9.60861
▁eficient	-9.61074
▁venta	-9.61078
▁gestionare	-9.611
▁considero	-9.61216
▁1997	-9.6128
cu	-9.61304
▁ayudas	-9.61389
vi	-9.61484
▁prueba	-9.6162
▁bis	-9.61639
▁oferă	-9.6165
▁drepturi	-9.61692
j	-9.61722
▁distintos	-9.61734
3/	-9.61776
▁necesitatea	-9.61777
▁figura	-9.61785
▁pare	-9.61785
▁utilizar	-9.618
▁prevista	-9.61815
▁pertinente	-9.6182
▁límites	-9.61827
in	-9.61918
▁evaluare	-9.62026
▁publicarea	-9.62148
▁directivas	-9.62153
▁legal	-9.62246
▁mismos	-9.62273
▁local	-9.62392
▁sección	-9.62516
▁examen	-9.62569
▁permanent	-9.62592
▁transportul	-9.62654
is	-9.62685
▁corespunzător	-9.62701
▁părţi	-9.62718
▁anexos	-9.62761
▁acordat	-9.62993
▁determinar	-9.62998
▁lucrătorilor	-9.62998
▁modificado	-9.63021
▁paso	-9.63188
▁acerca	-9.63209
▁cinci	-9.63229
▁condiţiilor	-9.63242
▁trecut	-9.634
▁igualdad	-9.63468
▁eficiente	-9.635
or	-9.63508
▁adoptadas	-9.63774
▁anii	-9.6379
▁aplicării	-9.63848
na	-9.64089
▁aumentar	-9.64117
▁termenul	-9.64218
▁respeto	-9.64306
▁producători	-9.64348
▁acces	-9.64384
▁económicos	-9.64428
▁cosas	-9.6443
▁intermediul	-9.64508
urilor	-9.64576
▁lua	-9.64595
▁pesar	-9.64618
▁cantităţile	-9.64624
▁impune	-9.64689
▁lung	-9.6469
▁véase	-9.64715
▁político	-9.64725
▁internet	-9.64824
▁instrument	-9.64842
▁prezentate	-9.649
▁acordarea	-9.64943
ma	-9.64963
▁legislaţiei	-9.65001
idad	-9.65125
▁administrativas	-9.65216
▁financieras	-9.65305
▁alta	-9.65341
▁securitatea	-9.655
▁cuales	-9.65501
▁adresează	-9.65595
▁especies	-9.65639
▁viitoare	-9.65648
▁justicia	-9.65663
▁campaña	-9.65783
▁contrato	-9.65816
▁aprilie	-9.65834
▁código	-9.65893
▁rolul	-9.65932
▁reforma	-9.65965
▁2,	-9.66019
▁abril	-9.66039
ăm	-9.66107
▁medicamentos	-9.66119
▁intervenţie	-9.66143
▁pruebas	-9.66172
ităţii	-9.66194
▁comunitarios	-9.66205
k	-9.66223
▁eforturile	-9.66318
▁motivo	-9.66318
▁rezultatele	-9.66392
▁referinţă	-9.66452
▁esas	-9.6648
▁naţional	-9.66514
▁(3),	-9.66561
▁necesidades	-9.66568
▁cercetare	-9.66605
▁van	-9.66635
▁formă	-9.66646
▁40	-9.66701
▁responsable	-9.66852
▁cursul	-9.66857
▁destinatarios	-9.66874
▁spune	-9.66888
▁incluir	-9.66889
▁proiect	-9.66932
▁prezentat	-9.66996
▁toţi	-9.67117
▁educación	-9.67213
▁tenido	-9.67422
▁naţională	-9.67575
▁necesarios	-9.67691
▁unido	-9.67705
▁ex	-9.67756
▁informaţiilor	-9.67763
▁asegurar	-9.67774
▁adoptarán	-9.67808
▁estará	-9.67908
":	-9.67915
▁bugetul	-9.68007
▁cinco	-9.68013
co	-9.68064
▁concesión	-9.68083
▁2004	-9.68126
▁altele	-9.6826
▁unas	-9.68381
▁dezbatere	-9.68381
▁poco	-9.68498
▁public	-9.68505
▁elecciones	-9.68505
▁substanţe	-9.68506
▁1994	-9.68557
nd	-9.68715
▁palabras	-9.68757
res	-9.68772
▁necesita	-9.68987
▁contratos	-9.69026
li	-9.69114
▁cadru	-9.69133
▁agencia	-9.69308
▁cantitatea	-9.69549
▁consecuencias	-9.69549
▁unidas	-9.69697
▁capítulo	-9.69702
▁representantes	-9.69821
își	-9.69884
▁conseguir	-9.69981
▁impacto	-9.70131
▁petición	-9.70169
treprinderilor	-9.70317
▁mejora	-9.70386
▁cărora	-9.70396
▁obiectivul	-9.7065
▁succes	-9.70732
▁lume	-9.70774
▁barroso	-9.70815
▁incluidos	-9.70817
▁buena	-9.70945
▁redes	-9.70954
▁transformación	-9.70997
▁politic	-9.71097
▁totalmente	-9.7113
▁subliniez	-9.71247
▁informes	-9.71286
í	-9.71358
▁eur	-9.71467
▁guvernul	-9.71525
▁regatul	-9.71542
▁puesta	-9.71604
▁anume	-9.71646
▁investiţii	-9.71684
to	-9.71692
▁aceeaşi	-9.7171
▁răspuns	-9.71804
les	-9.71809
fi	-9.71882
▁vii	-9.71997
▁junto	-9.72014
▁organizarea	-9.72063
▁limită	-9.72168
";	-9.72185
▁razones	-9.72301
▁evaluarea	-9.72344
ación	-9.72456
▁consulta	-9.72567
▁relevante	-9.72613
ga	-9.7262
▁especiales	-9.73086
▁notificación	-9.73144
▁declaraciones	-9.73219
▁segunda	-9.73256
▁comercializare	-9.73321
▁1991	-9.73349
▁dna	-9.73367
▁creştere	-9.73414
▁puse	-9.73422
▁continuă	-9.73445
7	-9.73473
▁2011	-9.73573
▁valoare	-9.73708
▁[	-9.73724
▁febrero	-9.73773
rse	-9.73804
▁mărfuri	-9.73855
0/	-9.73904
▁producţia	-9.73957
▁preţul	-9.73978
▁abordare	-9.74111
▁inferior	-9.7414
'	-9.74189
pe	-9.74203
▁persoană	-9.74254
cion	-9.74343
▁februarie	-9.74366
▁corect	-9.74393
▁leche	-9.74403
1/	-9.74415
(1),	-9.74432
▁juridice	-9.74472
▁1992	-9.74512
▁obiectiv	-9.74532
▁strategia	-9.74592
▁stabili	-9.74711
”.	-9.74744
▁características	-9.74757
▁situaţie	-9.74792
▁claramente	-9.74798
▁asigurarea	-9.74884
▁fines	-9.74924
articolul	-9.75015
▁mărfurilor	-9.75134
▁niños	-9.75158
▁principale	-9.75171
▁modificaciones	-9.752
▁jurídica	-9.75212
▁previstos	-9.75293
▁alto	-9.75518
▁niciun	-9.75534
▁experiencia	-9.75728
▁integración	-9.75756
▁varias	-9.7583
▁ţinând	-9.76044
▁(9)	-9.76122
▁motor	-9.76141
▁document	-9.76289
▁éxito	-9.76299
▁niveles	-9.76397
que	-9.76403
▁dat	-9.76442
▁contextul	-9.76669
▁esencial	-9.76681
▁existentes	-9.7671
▁natural	-9.76739
▁pueblo	-9.76833
▁dezbaterea	-9.76873
▁categoría	-9.76876
▁septiembre	-9.77009
▁éste	-9.77009
▁título	-9.7718
▁intrarea	-9.77208
▁vot	-9.7742
▁diálogo	-9.77509
sa	-9.77708
▁adecuada	-9.77731
▁naturaleza	-9.77858
▁reconocimiento	-9.77893
▁mis	-9.77896
▁obtener	-9.77962
▁președintă	-9.7797
▁representa	-9.77989
▁iau	-9.78035
▁septembrie	-9.78047
▁certificat	-9.78243
▁nord	-9.78374
▁puestos	-9.78433
▁libertatea	-9.7854
▁veterinar	-9.78604
▁vedea	-9.78672
▁ámbitos	-9.78736
▁administración	-9.78748
7/	-9.78757
▁oferi	-9.78815
▁carga	-9.78868
▁realidad	-9.7891
▁seis	-9.78979
▁reglamentos	-9.7937
tor	-9.79403
▁mencionadas	-9.79459
▁luat	-9.79467
▁seguro	-9.79479
▁asistenţă	-9.79606
▁creşterea	-9.79649
▁significa	-9.79661
mo	-9.79687
▁oficiale	-9.79716
▁reduce	-9.7974
▁deplin	-9.79767
▁programului	-9.79796
▁ziua	-9.79846
▁ţărilor	-9.79897
▁promovarea	-9.79933
▁sud	-9.79981
▁cazurile	-9.80031
▁inter	-9.80108
▁realizarea	-9.80129
▁intercambios	-9.80173
▁incluse	-9.80182
▁adopten	-9.80223
▁publicării	-9.80468
▁pequeñas	-9.80549
▁inversiones	-9.80592
▁criteriile	-9.80602
▁respectivă	-9.80669
▁liber	-9.80853
▁trimitere	-9.80866
▁homologación	-9.8095
▁mismas	-9.80997
▁faţa	-9.8103
▁privinţa	-9.8103
▁efect	-9.81052
elor	-9.81058
▁nuclear	-9.81126
▁existen	-9.8113
▁disponibile	-9.81144
▁internă	-9.81201
▁ley	-9.81314
▁decese	-9.81344
▁sănătăţii	-9.81509
▁față	-9.81509
▁totuși	-9.81709
▁folosite	-9.81711
▁acţiuni	-9.81764
▁doi	-9.81824
▁respectă	-9.81828
▁promover	-9.81831
▁eficientă	-9.8189
▁perspectiva	-9.819
▁acorduri	-9.81966
▁sectores	-9.82022
▁chestiune	-9.82022
▁agentes	-9.82038
▁suficient	-9.82047
▁complet	-9.82055
▁ofrecer	-9.82183
▁ea	-9.82229
▁excepción	-9.82232
▁mencionada	-9.8239
▁femeilor	-9.82423
▁competencias	-9.8249
▁pro	-9.82542
▁única	-9.82645
▁banco	-9.82671
▁ashton	-9.82798
▁innovación	-9.82798
▁subiect	-9.82802
▁mecanismo	-9.82809
▁rezultate	-9.82872
▁exista	-9.82935
▁sănătatea	-9.83023
▁locales	-9.83148
▁infraestructura	-9.83204
▁pobreza	-9.83245
adas	-9.83301
▁listă	-9.8337
▁entidades	-9.83392
▁almacenamiento	-9.83408
▁mulţi	-9.83481
▁conţin	-9.83519
▁indicaciones	-9.83534
▁económicas	-9.8356
▁resurselor	-9.83569
▁scurt	-9.83596
ando	-9.83708
▁comunică	-9.83906
▁costurile	-9.83955
▁aplice	-9.8411
▁garanta	-9.8413
▁impuesto	-9.84142
▁normal	-9.84149
nte	-9.84198
▁dreptului	-9.84225
▁stabilesc	-9.84228
▁ajuta	-9.84242
▁jóvenes	-9.84433
▁activităţi	-9.8454
▁alimentaria	-9.84546
▁cambios	-9.84579
▁h	-9.84606
▁bulgaria	-9.84738
▁energetică	-9.84794
▁pertinentes	-9.84799
▁ajutorului	-9.84912
▁patru	-9.8501
▁progreso	-9.8518
▁bienes	-9.85331
▁activităţile	-9.85426
▁supuse	-9.85442
▁sanciones	-9.85603
▁regim	-9.85612
▁curând	-9.85635
▁nada	-9.85731
▁miliarde	-9.8574
▁categorías	-9.85744
▁violencia	-9.85761
▁căruia	-9.85802
▁mondial	-9.85826
▁garantías	-9.85853
con	-9.85996
▁regiune	-9.86059
▁opinia	-9.86137
▁standardele	-9.86217
▁țară	-9.86221
▁había	-9.86233
▁crédito	-9.86268
▁2003	-9.86313
▁media	-9.86326
▁secţiunea	-9.86334
▁víctimas	-9.8634
▁noile	-9.86442
▁animală	-9.86484
▁difícil	-9.86518
▁ésta	-9.86645
zi	-9.86685
▁propios	-9.86715
▁domenii	-9.86763
▁método	-9.86774
▁muncii	-9.86783
▁activitate	-9.86822
▁evident	-9.86832
▁centro	-9.86864
▁regiunea	-9.86889
4/	-9.86946
▁referire	-9.86948
lea	-9.87
▁contribuie	-9.8708
▁introducción	-9.87107
▁modificar	-9.87127
▁encontrar	-9.87326
▁legale	-9.87347
▁comisaria	-9.87479
▁principiul	-9.87497
▁nacidos	-9.87582
▁coeziune	-9.87626
▁realizado	-9.87672
▁fallecidos	-9.87743
▁aproape	-9.87785
▁majoritate	-9.87799
▁totală	-9.87868
▁comunicarán	-9.87888
▁gas	-9.8791
▁anexă	-9.87913
▁caracteristici	-9.87913
▁fronteras	-9.87921
▁pagos	-9.87936
▁inspección	-9.87956
▁contribui	-9.88019
ter	-9.88046
▁energiei	-9.88049
▁adaugă	-9.8806
▁pur	-9.88073
▁necesită	-9.88127
20	-9.88172
▁acolo	-9.88174
▁ustedes	-9.88283
▁peso	-9.8838
▁adaptación	-9.88388
▁letras	-9.88406
▁unit	-9.8843
▁stabilească	-9.8847
▁trabajar	-9.8847
▁început	-9.88537
▁solicita	-9.88546
por	-9.88661
▁contrario	-9.88671
▁forţei	-9.88747
▁efectuează	-9.88771
▁cuatro	-9.88814
▁dificultades	-9.88819
▁cumplan	-9.88822
▁rămâne	-9.88895
▁propio	-9.8891
▁autorizate	-9.89056
▁públicos	-9.89094
▁polonia	-9.89161
▁zonele	-9.89258
artículo	-9.89295
▁eficiencia	-9.89418
▁suministro	-9.89474
▁practică	-9.8962
▁articulo	-9.89639
▁contemplada	-9.89741
▁cheltuielile	-9.89787
▁ingresos	-9.89789
▁realización	-9.89824
▁enmiendas	-9.89826
▁aplicate	-9.89872
▁alguna	-9.8991
▁solamente	-9.90038
▁espacio	-9.90129
▁adecuado	-9.90172
▁schimbările	-9.90255
▁tehnic	-9.90312
▁salvo	-9.90333
▁relacionados	-9.90409
▁clave	-9.90419
!	-9.90682
ur	-9.90797
▁calitatea	-9.90805
▁circunstancias	-9.90814
▁afecta	-9.90885
▁înalt	-9.90901
rá	-9.9091
▁moneda	-9.90919
▁sfârşitul	-9.90967
▁aderare	-9.90975
▁vigilancia	-9.91122
▁turquía	-9.91168
▁fondul	-9.91242
▁materiales	-9.9126
▁reglamentarias	-9.91401
▁aduaneras	-9.91517
▁destinadas	-9.91576
▁instrumente	-9.91576
▁cultura	-9.91713
▁hablar	-9.91731
▁titular	-9.91812
▁entonces	-9.91874
▁independiente	-9.91903
▁incluidas	-9.91911
▁confruntă	-9.92064
▁indiferent	-9.9214
▁regiuni	-9.92204
▁restitución	-9.92229
▁5.	-9.92436
▁ţine	-9.92517
(2),	-9.92548
▁considera	-9.92567
▁fondurile	-9.92608
▁așa	-9.92614
▁naturale	-9.92703
▁nașteri	-9.92721
▁decide	-9.92755
▁reforzar	-9.92803
ie	-9.92911
▁toată	-9.92993
▁protocolo	-9.92993
▁votul	-9.93009
▁2007	-9.93073
▁procedurilor	-9.9326
▁aprobado	-9.93335
▁fiecărui	-9.9338
▁(10)	-9.9342
▁normativa	-9.93486
▁seguros	-9.93503
▁popular	-9.93536
▁siglo	-9.93576
▁credit	-9.93617
▁instalaciones	-9.93666
▁acordate	-9.93729
▁faptului	-9.93797
▁juridică	-9.93874
▁centrale	-9.93892
▁cargo	-9.93966
▁standarde	-9.94066
▁prioridades	-9.94067
▁enmienda	-9.94102
▁limita	-9.94135
▁alimenticios	-9.94147
▁fabricación	-9.94166
▁deşi	-9.94255
▁aţi	-9.94269
▁asigurare	-9.94297
▁cierto	-9.94374
▁prioridad	-9.94398
▁reprezentant	-9.94484
▁prever	-9.94487
▁căreia	-9.94515
▁3,	-9.9456
▁60	-9.94605
▁rapid	-9.9465
▁austria	-9.94666
▁desarrollar	-9.94686
▁pus	-9.94715
▁presentará	-9.94728
▁enfermedad	-9.94763
▁oamenii	-9.9478
▁potrivit	-9.94896
▁proporcionar	-9.95016
▁ir	-9.95036
▁preciso	-9.95037
▁etiquetado	-9.95061
▁convenţia	-9.95088
▁locale	-9.95093
▁1996	-9.95121
▁irán	-9.95151
▁pescuitului	-9.9521
▁adresa	-9.95319
▁articolului	-9.95362
▁instituţiile	-9.95502
▁afectează	-9.95629
▁ilegal	-9.9566
▁expedición	-9.9572
▁utilizare	-9.95724
▁norte	-9.95756
▁elaboración	-9.9577
▁taxe	-9.95841
▁adecvat	-9.96095
go	-9.96112
▁datorită	-9.96229
▁interno	-9.96231
▁eficacia	-9.96236
▁strategie	-9.96244
▁perioadei	-9.96317
▁oferta	-9.96366
▁situația	-9.96368
▁realiza	-9.96391
▁treia	-9.96464
▁obiectivelor	-9.96465
▁partido	-9.96568
▁implică	-9.96603
▁idea	-9.96645
▁implicate	-9.96715
▁tengo	-9.96741
▁gobiernos	-9.96803
▁multă	-9.96812
8/	-9.96829
▁legislaciones	-9.96834
▁informarán	-9.96856
▁esenţial	-9.96887
▁per	-9.96949
▁guión	-9.97021
▁externă	-9.97038
▁rezultat	-9.97046
▁2)	-9.97052
▁cererile	-9.97126
▁técnico	-9.97198
▁individual	-9.97527
▁fim	-9.97583
▁competitividad	-9.97631
▁majoritatea	-9.97669
▁minime	-9.97683
▁públicas	-9.97697
▁principiile	-9.97739
▁haga	-9.97763
▁planes	-9.97768
▁documentele	-9.97795
▁definite	-9.97828
▁autorităţii	-9.97931
▁recuperación	-9.97962
▁compromisos	-9.98038
▁2006	-9.98105
▁durata	-9.98129
▁medioambiental	-9.98162
▁combaterea	-9.98187
▁tendrán	-9.98204
▁deciziile	-9.98249
▁obţinute	-9.98378
▁adicionales	-9.98418
▁fase	-9.98442
▁regimul	-9.98448
▁întotdeauna	-9.9848
▁calea	-9.98607
▁sesión	-9.98633
▁utilizării	-9.98665
um	-9.98687
▁acele	-9.98709
▁materias	-9.98749
va	-9.98773
▁consumidor	-9.98774
▁técnica	-9.98926
▁35	-9.98969
);	-9.98972
▁distribución	-9.99051
▁viitorul	-9.99086
▁él	-9.99095
▁informare	-9.99106
▁saber	-9.99129
▁adopta	-9.9914
ban	-9.99181
▁prevadă	-9.99242
▁construcción	-9.99481
▁condición	-9.99481
▁produsului	-9.99527
▁dezvoltării	-9.99547
▁acorde	-9.99548
▁plată	-9.9968
▁carta	-9.99691
▁valori	-9.99704
▁responsables	-9.99788
▁resurse	-9.99841
▁lumea	-9.99873
▁utilizados	-9.99883
▁camino	-9.99914
▁mărfurile	-9.99975
▁naționale	-9.99988
▁caracter	-10.0003
▁asigurăm	-10.0012
▁încheierea	-10.0025
▁ridicat	-10.0027
▁francia	-10.0028
▁grup	-10.0028
▁discriminación	-10.003
▁acordurile	-10.0049
▁duración	-10.005
▁1)	-10.0051
▁cetățenilor	-10.0058
▁consolidarea	-10.006
▁proiectul	-10.0062
▁exteriores	-10.0071
▁fiscal	-10.0075
▁fomentar	-10.0082
▁bugetului	-10.0093
▁llegar	-10.0103
▁reducere	-10.0111
▁energetice	-10.0114
▁abordar	-10.0116
▁acordată	-10.0117
▁mañana	-10.0117
▁definición	-10.0117
▁ajuns	-10.0129
so	-10.0147
▁agricolă	-10.0152
ze	-10.0165
▁piața	-10.0171
▁azúcar	-10.0182
▁responder	-10.0182
▁1989	-10.0183
▁adoptará	-10.0191
▁reunión	-10.0191
▁buen	-10.0194
▁risc	-10.0199
▁simplu	-10.0207
▁interesate	-10.0215
▁numeroase	-10.0215
▁inclusión	-10.0215
▁sabemos	-10.0216
▁gobernanza	-10.023
▁capitolul	-10.0232
▁valorile	-10.0234
▁producţiei	-10.0239
▁fondurilor	-10.0239
▁obligaţia	-10.024
▁informará	-10.024
▁contribuir	-10.0242
▁peligro	-10.0249
ni	-10.025
▁apel	-10.025
▁rezoluţie	-10.0252
▁gen	-10.0262
▁di	-10.0264
▁solicitat	-10.0274
▁minim	-10.0277
▁autor	-10.0278
▁privinţă	-10.0284
▁sanitaria	-10.029
▁cuvinte	-10.0307
▁laboral	-10.0311
▁conţine	-10.0319
▁deosebit	-10.032
x	-10.032
▁modificada	-10.0344
▁treilea	-10.0346
ven	-10.0358
▁prioritate	-10.0361
▁modificări	-10.0362
▁iniciativas	-10.0363
▁aplicarse	-10.0371
▁pun	-10.0372
▁sistemele	-10.0373
▁semana	-10.0376
▁respecte	-10.0379
▁noştri	-10.0379
▁500	-10.0382
tocmai	-10.0384
▁eliminarea	-10.0386
▁poziţia	-10.039
▁permita	-10.0395
za	-10.0398
▁solicitante	-10.04
▁colegas	-10.0402
▁agricultores	-10.042
în	-10.0424
▁conceder	-10.0424
▁próximo	-10.0425
▁fijar	-10.043
▁importurile	-10.0433
▁interesul	-10.0439
▁intern	-10.0442
▁clara	-10.0442
▁puțin	-10.0444
4,	-10.0448
▁producătorii	-10.045
▁disponibles	-10.0451
▁sustancia	-10.0451
▁concreto	-10.0453
us	-10.0455
▁adecuadas	-10.0457
▁gestionarea	-10.046
▁cererii	-10.0461
▁regionale	-10.0461
▁şase	-10.0466
▁posibles	-10.0469
▁clasificación	-10.047
▁plenamente	-10.047
▁facilita	-10.0482
▁membrii	-10.049
▁beneficios	-10.0497
▁expresar	-10.0501
▁civile	-10.0509
▁următoare	-10.0526
▁putut	-10.053
▁actuale	-10.0535
▁natura	-10.0535
▁puedo	-10.0546
▁lupta	-10.0547
că	-10.0547
▁enumerate	-10.0551
▁vistas	-10.0553
▁humana	-10.0553
▁considerate	-10.0557
▁furnizate	-10.056
▁hacerlo	-10.0569
▁derogare	-10.0572
qué	-10.0578
▁juridic	-10.0579
▁auto	-10.0586
▁marea	-10.0588
▁voto	-10.0591
▁80	-10.0598
▁active	-10.0608
▁sur	-10.0611
▁dejar	-10.0614
▁importul	-10.0615
▁cumbre	-10.0616
▁regiunile	-10.0626
▁alemania	-10.0627
▁probabil	-10.0634
▁propuse	-10.0636
▁rezultatul	-10.0638
▁deci	-10.0647
▁estadísticas	-10.065
▁fonduri	-10.0658
▁regulile	-10.067
toare	-10.0674
▁paquete	-10.0675
▁plata	-10.0676
ron	-10.0681
▁asilo	-10.0684
▁evita	-10.0686
▁ajunge	-10.07
▁oportunidades	-10.0702
▁procesului	-10.0704
▁específicos	-10.0716
▁industrial	-10.0721
▁equipos	-10.073
▁implica	-10.0731
▁îndeplinesc	-10.0735
▁indicación	-10.0741
▁aceştia	-10.0747
▁liberă	-10.0751
▁impuestos	-10.0751
▁părţile	-10.0759
▁creștere	-10.076
▁dispoziţie	-10.0761
▁liniuţă	-10.0772
▁făcute	-10.0774
hu	-10.0776
▁cumplen	-10.0777
▁distintas	-10.0781
▁modificarea	-10.0782
▁diferencia	-10.0783
▁interes	-10.0788
▁rândul	-10.0794
▁reguli	-10.0797
▁relacionadas	-10.0802
▁autorizados	-10.0803
▁produsul	-10.0804
▁actuar	-10.0813
▁contribución	-10.0813
▁colaboración	-10.0813
▁identificación	-10.0814
▁k	-10.0817
▁fijado	-10.0818
▁ordinea	-10.0822
er	-10.0827
▁primit	-10.0829
▁deciziei	-10.0835
▁unică	-10.0836
▁2009,	-10.0838
▁euratom	-10.084
▁confianza	-10.085
▁preşedinţia	-10.085
▁satisfacción	-10.085
▁contaminación	-10.085
▁conclusiones	-10.0855
▁mulțumesc	-10.0855
▁economia	-10.0866
▁același	-10.0866
▁activa	-10.0869
▁agua	-10.0873
▁cerinţelor	-10.0875
▁beneficia	-10.0876
▁evolución	-10.0876
▁zone	-10.088
▁cultural	-10.0883
▁rezerva	-10.0889
▁progresul	-10.0889
▁aguas	-10.0901
▁zonă	-10.0903
▁parcursul	-10.0911
▁mică	-10.0913
ría	-10.0914
▁comerţul	-10.0915
▁cerinţe	-10.0934
▁españa	-10.0934
▁introducir	-10.0936
▁paz	-10.0937
▁duce	-10.0946
▁quedará	-10.0951
▁acţiunile	-10.0955
▁coste	-10.0964
▁verde	-10.0964
▁incluye	-10.0966
▁siguranţa	-10.0971
▁felicit	-10.0974
▁rata	-10.0976
▁cere	-10.0989
▁33	-10.0989
▁lado	-10.099
▁presión	-10.0993
▁durabilă	-10.0995
▁habrá	-10.0999
▁internaţională	-10.1001
▁semnificativ	-10.1001
▁seguimiento	-10.1003
▁2012	-10.1011
▁transfrontalier	-10.1014
▁resursele	-10.1017
▁demasiado	-10.1024
▁prevención	-10.1024
▁vital	-10.1025
▁anexele	-10.1038
▁proiecte	-10.1038
▁prezinte	-10.1042
ten	-10.1049
▁finales	-10.1051
▁uniforme	-10.1054
▁interesado	-10.1056
▁aceleaşi	-10.1057
▁bancos	-10.1063
▁aduana	-10.1065
▁copii	-10.1069
▁éstas	-10.1083
▁beneficio	-10.1084
▁mandato	-10.1088
▁destinaţie	-10.1089
▁periculoase	-10.1094
▁declaraţia	-10.1094
▁funciones	-10.1095
▁(4),	-10.1098
▁intercambio	-10.1103
▁conţinutul	-10.1103
▁societate	-10.1105
▁instituţii	-10.1105
▁(11)	-10.1112
▁comercializarea	-10.1116
▁păcate	-10.1123
▁comerţului	-10.1124
▁32	-10.1124
▁horas	-10.1125
▁adoptată	-10.1129
▁ella	-10.1133
9	-10.114
▁marcha	-10.1148
▁graves	-10.1153
▁criterii	-10.1153
▁societăţii	-10.1161
▁certificación	-10.117
▁transportului	-10.1175
fa	-10.1181
▁determinado	-10.1186
▁politicile	-10.1187
▁organismele	-10.1191
▁arată	-10.1191
▁recent	-10.1195
▁fondului	-10.1196
▁pună	-10.1206
▁femei	-10.1206
▁programe	-10.1214
▁huevos	-10.122
▁porcentaje	-10.1222
▁alcance	-10.1224
▁prevederile	-10.1225
▁supone	-10.1238
▁resolver	-10.1246
▁crucial	-10.1252
▁proteja	-10.126
▁mediul	-10.1263
▁anti	-10.1264
▁expertos	-10.1266
6	-10.1266
▁afectados	-10.127
▁regimului	-10.1274
▁regímenes	-10.1278
▁luna	-10.1281
▁especie	-10.1293
▁categorii	-10.1295
▁întrebare	-10.1301
▁defensa	-10.1306
▁georgia	-10.1306
▁individuale	-10.131
▁votar	-10.1313
tri	-10.1315
▁línea	-10.1327
▁negocierilor	-10.134
▁ellas	-10.1346
▁efectiva	-10.135
▁haciendo	-10.1361
▁munca	-10.1361
▁quienes	-10.1363
▁lucruri	-10.1364
▁cereri	-10.1373
▁specific	-10.1385
▁producătorilor	-10.1388
▁interesele	-10.139
▁context	-10.1391
▁mijlocii	-10.1395
▁guerra	-10.1398
▁tratament	-10.1404
▁documente	-10.1417
▁negocierile	-10.1425
ări	-10.1427
▁vehículo	-10.1437
▁1987	-10.1453
▁adicional	-10.1457
▁persoana	-10.1461
▁capacitatea	-10.1461
▁transmite	-10.1464
ja	-10.1467
pi	-10.1471
▁lipsa	-10.1472
▁standard	-10.1472
▁ecu	-10.1475
▁4,	-10.1481
▁centrală	-10.1487
▁positivo	-10.1487
▁sistemelor	-10.1494
▁bugetare	-10.1498
lt	-10.1499
▁multor	-10.1501
nl	-10.1505
▁israel	-10.1509
▁elaborarea	-10.1517
▁original	-10.1518
▁structurale	-10.1518
▁profesională	-10.1526
▁soluciones	-10.1528
▁efectuar	-10.153
▁aerian	-10.1531
▁determinación	-10.1534
ización	-10.1535
▁causa	-10.1537
▁libia	-10.1539
▁contar	-10.1539
▁introduce	-10.1541
▁fuentes	-10.1544
▁propus	-10.1548
▁aproximación	-10.155
95	-10.1553
▁actuales	-10.1559
▁efectiv	-10.156
▁conturi	-10.1573
▁excepciones	-10.1578
▁apoi	-10.1584
▁75	-10.1584
▁membri	-10.1586
▁certificate	-10.1601
▁economiei	-10.1601
▁puternic	-10.1602
▁societatea	-10.1607
▁analiză	-10.1609
▁nucleare	-10.1609
▁programele	-10.161
▁impact	-10.1613
▁recibir	-10.1614
▁legislative	-10.1616
▁noua	-10.1617
▁gestiune	-10.1624
▁curso	-10.1627
▁acorda	-10.1628
▁preţurilor	-10.1628
▁generală	-10.1631
▁oricărei	-10.1635
▁específica	-10.1637
▁ceva	-10.1644
▁demostrado	-10.1646
10	-10.165
▁uz	-10.1654
▁deseo	-10.1655
▁atenţie	-10.1659
▁posibilă	-10.1663
▁2005	-10.1668
▁productor	-10.1669
▁diverse	-10.1676
▁simplemente	-10.1677
▁cetățenii	-10.1678
”,	-10.1685
▁nunca	-10.1686
▁aspectele	-10.1691
▁ofere	-10.1691
▁hubiera	-10.1693
▁entenderá	-10.1693
▁sucesivo	-10.1697
▁portugal	-10.1702
▁conferencia	-10.1708
▁gente	-10.1709
▁director	-10.1709
▁historia	-10.1711
▁furnizarea	-10.1717
▁comprobar	-10.1722
▁señalar	-10.1726
▁toma	-10.1732
▁grado	-10.1732
▁2013	-10.1738
▁strategiei	-10.1741
▁lituania	-10.1743
▁departe	-10.1747
▁periodo	-10.1748
▁solidaritate	-10.1751
▁ciuda	-10.1753
▁técnicos	-10.1762
▁realizat	-10.177
▁ultimul	-10.1775
▁lângă	-10.1778
▁provisional	-10.1779
▁elemente	-10.1781
▁conocimiento	-10.1783
▁aflate	-10.1786
▁scopuri	-10.1788
▁maxim	-10.1797
▁casi	-10.1799
▁veterinario	-10.1807
▁etiqueta	-10.1808
▁utiliza	-10.1809
▁sisteme	-10.1812
▁înregistrate	-10.1814
]	-10.182
▁preguntas	-10.1826
▁aducă	-10.1827
▁ucrania	-10.1829
ti	-10.1829
▁norma	-10.1831
▁temporal	-10.184
▁máximos	-10.1841
▁presencia	-10.1841
▁par	-10.1858
tre	-10.1864
▁plante	-10.1864
▁podrían	-10.1867
▁considerar	-10.1868
▁denominación	-10.187
▁tráfico	-10.1876
▁tránsito	-10.1876
▁ştiinţifice	-10.1885
▁igualmente	-10.1888
▁destacar	-10.1889
▁naturales	-10.1891
▁buget	-10.1902
▁prezentarea	-10.1907
▁ţării	-10.1912
▁establecerán	-10.1913
▁alimentación	-10.1917
▁activităţilor	-10.1924
▁natură	-10.1928
▁săptămâni	-10.1929
▁completa	-10.1929
▁obligatorii	-10.194
pa	-10.1949
▁vizează	-10.1952
▁excelente	-10.1955
▁india	-10.1969
▁exclusiv	-10.1974
▁îmbunătăţirea	-10.1982
▁equilibrio	-10.1987
▁actuală	-10.1987
▁34	-10.199
▁efectele	-10.1991
▁menudo	-10.1993
(3),	-10.2
▁directa	-10.2003
▁specifică	-10.2005
▁eforturi	-10.2007
▁similar	-10.2007
▁permit	-10.201
▁anexei	-10.2014
▁dorit	-10.2023
▁bani	-10.2031
▁însoţite	-10.2034
▁cooperării	-10.2038
▁bastante	-10.2041
00	-10.2041
▁îndeplinirea	-10.2042
▁tercero	-10.2042
▁actos	-10.2045
ile	-10.2047
▁turcia	-10.2049
▁exención	-10.2058
▁obligaţiile	-10.2059
▁încheiat	-10.2061
▁instituţiilor	-10.2068
▁biroul	-10.207
▁permitan	-10.2072
▁perioade	-10.2078
▁36	-10.2079
▁enfermedades	-10.208
▁îndoială	-10.2081
ex	-10.2085
▁obţine	-10.2087
nu	-10.2089
▁intención	-10.2093
▁importanţa	-10.2093
▁practici	-10.2095
▁indică	-10.2099
▁pieţelor	-10.2099
▁autorizado	-10.2102
▁creado	-10.2111
▁aprobat	-10.2117
▁serbia	-10.2124
▁maxime	-10.2126
▁dispoziţia	-10.2129
▁incluido	-10.213
▁aspecto	-10.215
▁restricciones	-10.2153
▁uniune	-10.2153
▁pyme	-10.2154
▁disponer	-10.2157
▁stabilitate	-10.2159
▁alegeri	-10.2166
▁vânzare	-10.2168
▁pedir	-10.2169
▁recurso	-10.2183
▁llegado	-10.2183
▁ministro	-10.2183
▁referente	-10.2184
▁reservas	-10.2189
▁establecida	-10.2189
▁estructurales	-10.219
▁incluida	-10.2191
▁formas	-10.2193
▁prime	-10.22
▁diferencias	-10.2204
▁copiilor	-10.2205
▁volumen	-10.2221
▁realizate	-10.2225
▁ultime	-10.2228
▁tehnică	-10.223
▁cetăţeni	-10.2234
▁creșterea	-10.2245
▁românia	-10.225
▁vin	-10.2253
▁adecvată	-10.2253
▁aprobarea	-10.2261
▁1988	-10.2265
▁mecanismos	-10.2275
sk	-10.2277
▁esenţiale	-10.2286
▁africa	-10.2286
▁potencial	-10.2286
▁mensaje	-10.2286
▁recibido	-10.2286
▁politicilor	-10.2287
▁consideración	-10.2289
▁agenda	-10.2291
▁pasajeros	-10.2293
▁plazos	-10.2294
▁reglementări	-10.2295
▁regulación	-10.2297
ice	-10.2299
▁onu	-10.2303
▁primas	-10.2315
▁preţurile	-10.2316
▁propunerile	-10.2319
▁fútbol	-10.2321
▁ulterior	-10.2336
▁independencia	-10.2339
▁prevé	-10.2341
▁depăşeşte	-10.2346
▁pac	-10.2354
▁răspunde	-10.2357
▁mijloace	-10.2361
▁informaciones	-10.2364
▁compañías	-10.2369
▁evidente	-10.2373
▁entrega	-10.2375
▁modificările	-10.2379
▁organismul	-10.2381
▁raportor	-10.2382
▁justiţie	-10.2383
▁limba	-10.2396
▁estarán	-10.2396
▁germania	-10.2401
▁fuerza	-10.2403
▁forme	-10.2406
▁kosovo	-10.2413
▁habida	-10.2419
▁anteriormente	-10.2419
▁solicit	-10.242
▁anteriores	-10.2421
▁mantenimiento	-10.2425
▁acp	-10.2426
▁supravegherea	-10.2427
%	-10.2429
▁variedades	-10.2446
▁cereales	-10.2447
▁progrese	-10.2447
▁alimente	-10.2454
▁semanas	-10.2455
si	-10.2462
▁deban	-10.2467
▁propune	-10.2469
gi	-10.248
▁añadido	-10.2495
▁aves	-10.2495
▁añadirá	-10.2501
▁consum	-10.2502
▁unic	-10.2505
▁superficie	-10.2507
▁contract	-10.2521
▁similare	-10.2522
tori	-10.2528
▁chestiuni	-10.2528
▁cheltuielilor	-10.2537
▁2020.	-10.2544
▁mei	-10.2547
▁metodele	-10.2548
▁azil	-10.255
▁vamos	-10.2551
▁existencia	-10.2552
▁interesados	-10.2552
▁adelante	-10.2567
▁tratar	-10.2568
▁regionales	-10.2568
▁curtea	-10.2569
▁europă	-10.2569
▁amenaza	-10.2572
▁sociedades	-10.2573
▁figurează	-10.2574
▁vorbim	-10.2575
▁fotbal	-10.2579
8	-10.258
▁do	-10.2584
▁parteneriat	-10.2584
▁cuadro	-10.2588
▁créditos	-10.2592
▁recomendaciones	-10.2592
▁angajamentul	-10.2596
▁checa	-10.2599
▁singur	-10.2602
▁decidir	-10.2603
▁importes	-10.2605
▁moldova	-10.2617
▁dnei	-10.2618
▁ocazia	-10.2623
▁alineat	-10.2626
▁reformas	-10.2627
▁reglas	-10.2627
▁reală	-10.263
▁(12)	-10.2632
▁ultimii	-10.2632
▁1999,	-10.2635
▁proceder	-10.2639
▁centrales	-10.2644
ch	-10.2654
▁cărnii	-10.2667
▁declaraţie	-10.2676
▁conservación	-10.268
ge	-10.2695
▁certificatul	-10.2695
▁ven	-10.2698
▁conduce	-10.2701
▁protejarea	-10.2705
▁equivalente	-10.2708
▁entidad	-10.2714
▁sectorului	-10.272
▁2009.	-10.2733
▁mejores	-10.2736
▁lactate	-10.2737
▁participar	-10.2737
▁edad	-10.2738
▁finanţarea	-10.2738
▁putere	-10.2742
▁necesitan	-10.2745
▁planul	-10.2747
ve	-10.2748
▁combatir	-10.2749
▁aceptar	-10.2752
▁motivele	-10.2754
▁70/156/	-10.2756
▁ambele	-10.2762
▁áreas	-10.277
▁situaţiei	-10.2772
▁categoria	-10.2775
▁globală	-10.2776
▁programelor	-10.2787
▁carnes	-10.2789
▁mondială	-10.2794
▁controalelor	-10.2802
▁1992,	-10.2803
▁siguranță	-10.2807
▁armonización	-10.2807
▁terţă	-10.2808
▁nimic	-10.2814
▁estructura	-10.2814
▁depuse	-10.2815
▁desempleo	-10.2819
▁anuale	-10.2821
▁compromis	-10.2824
▁celorlalte	-10.2826
▁organizaţiile	-10.2829
ec	-10.283
▁autorizar	-10.2831
▁prohibición	-10.2832
▁veces	-10.2832
car	-10.2834
▁autorizat	-10.2838
▁următoarea	-10.2842
▁îndeplinite	-10.2845
▁pib	-10.285
dor	-10.2852
▁înregistrat	-10.2855
▁participarea	-10.2857
▁începutul	-10.2861
▁impactul	-10.2864
▁1999/468/	-10.2864
▁motivul	-10.2865
▁grupuri	-10.287
▁ampliación	-10.2871
▁puncte	-10.2874
▁finanţare	-10.2876
▁posibilidades	-10.2882
▁produce	-10.2885
ându	-10.289
▁industriei	-10.2892
▁resto	-10.2895
▁requiere	-10.2898
▁act	-10.2899
▁solicitar	-10.2899
▁oficiales	-10.29
▁ra	-10.2902
▁habría	-10.2903
▁inmigración	-10.2909
▁schimbărilor	-10.2915
▁continue	-10.2916
▁abordarea	-10.2917
▁seminţe	-10.2922
ați	-10.2925
▁científicos	-10.2926
ității	-10.293
▁formare	-10.2932
▁afirmat	-10.2938
▁producido	-10.2938
▁rezoluţia	-10.2941
▁evaluar	-10.2941
▁operación	-10.2942
▁áfrica	-10.2942
esc	-10.2943
▁sua	-10.2947
▁mencionar	-10.2948
▁est	-10.2959
▁prevenirea	-10.296
▁emisiilor	-10.2966
▁globale	-10.2967
▁metode	-10.2967
numită	-10.2969
▁devină	-10.2971
▁pericol	-10.2973
▁coordonare	-10.298
▁po	-10.2981
▁fijación	-10.2994
▁forței	-10.3003
▁cale	-10.3004
▁întrebarea	-10.3007
▁limitele	-10.3008
▁model	-10.301
▁subliniat	-10.301
▁buque	-10.3017
▁bazează	-10.3019
▁modalităţile	-10.3021
▁tarifare	-10.3025
▁pensiones	-10.3026
▁humano	-10.303
fe	-10.3031
▁prestar	-10.3034
ale	-10.3036
▁proceda	-10.3037
▁debates	-10.3041
▁apertura	-10.3045
▁beneficiază	-10.3052
▁solicite	-10.3062
▁eliminar	-10.3063
▁bunuri	-10.3073
▁43	-10.3076
▁labor	-10.308
▁mal	-10.3081
▁securităţii	-10.3085
▁militar	-10.3086
▁sprijini	-10.3088
▁operadores	-10.3093
▁imm	-10.3094
▁trabajos	-10.3095
▁aproximativ	-10.3098
▁juegos	-10.3101
▁trato	-10.3101
▁începe	-10.3111
▁libertades	-10.3117
▁tasa	-10.3122
▁trimiteri	-10.3123
▁existat	-10.313
▁folosirea	-10.3131
▁unidad	-10.3132
ție	-10.3134
▁aéreo	-10.3134
▁clare	-10.3137
▁institución	-10.3137
▁prim	-10.3143
▁interiorul	-10.3143
▁corectă	-10.3144
▁podamos	-10.315
▁cărui	-10.3157
▁cuprinde	-10.317
▁exact	-10.317
")	-10.3174
▁devenit	-10.3174
▁preocupación	-10.3184
▁plantas	-10.3189
▁modificate	-10.3195
▁sustituye	-10.3196
▁importate	-10.3198
▁exigir	-10.3201
▁medianas	-10.3203
▁cer	-10.3205
▁specială	-10.3216
ea	-10.3216
▁ocuparea	-10.322
▁retirada	-10.3221
▁derivados	-10.3222
▁6,	-10.3223
▁luăm	-10.3223
w	-10.3231
▁îndeplinească	-10.3236
▁socios	-10.3239
▁profesionale	-10.3246
▁recordar	-10.3249
▁maximă	-10.3253
▁promoción	-10.3276
▁veterinarios	-10.3284
▁armonizarea	-10.3284
tra	-10.3287
▁nevoia	-10.3289
▁cine	-10.329
▁guvern	-10.329
▁nave	-10.3296
▁demanda	-10.3297
▁fueron	-10.3298
▁tecnologías	-10.3302
▁oamenilor	-10.3303
▁egală	-10.3304
▁agricol	-10.3307
▁deuda	-10.3308
▁columna	-10.331
▁susţin	-10.3316
ţe	-10.3319
ţia	-10.3323
▁hungría	-10.3323
▁fond	-10.3332
ţii	-10.3336
▁situaciones	-10.3337
▁continuar	-10.3337
▁întârziere	-10.3344
▁oportuno	-10.3347
▁espera	-10.3353
▁demostrar	-10.3366
ră	-10.3367
▁rezoluție	-10.3367
▁utilizarse	-10.3367
▁temas	-10.3367
▁reglementate	-10.3367
iv	-10.3369
im	-10.337
▁esenciales	-10.3371
ică	-10.3374
▁americii	-10.3377
▁noul	-10.3378
▁mayores	-10.3379
▁navelor	-10.338
▁serviciu	-10.3382
▁correcta	-10.3386
▁carretera	-10.3389
▁totodată	-10.3391
▁precisamente	-10.3392
▁salida	-10.3397
▁originarios	-10.3403
▁principalmente	-10.3408
▁soluţie	-10.3411
▁clară	-10.3416
ón	-10.3417
▁conflicto	-10.3422
▁aşadar	-10.3425
▁introduse	-10.3427
▁animalele	-10.3427
▁afectate	-10.3429
▁destul	-10.3433
▁instancia	-10.3436
▁ofrece	-10.344
▁singură	-10.344
rán	-10.3441
▁actualidad	-10.3441
▁profesionales	-10.3449
▁susţine	-10.3461
▁anuales	-10.3466
▁demora	-10.3493
▁transparente	-10.3496
▁organism	-10.3497
▁titlul	-10.3501
▁ecologice	-10.3513
▁específico	-10.3518
▁enorme	-10.352
▁oposición	-10.3521
▁absolut	-10.3524
▁lapte	-10.353
▁documentul	-10.353
▁oficială	-10.3534
▁umane	-10.3534
▁mecanism	-10.3537
▁statutul	-10.3537
▁factor	-10.3544
▁venit	-10.355
▁considerará	-10.3554
▁5,	-10.3559
▁uman	-10.3566
▁instrumentele	-10.3569
▁elaborar	-10.3573
▁particulares	-10.3587
▁solicitarea	-10.3588
▁reglementează	-10.3589
▁alimentară	-10.3596
▁monitorizare	-10.3598
▁mic	-10.3601
▁clase	-10.3601
▁majore	-10.3607
▁jurídico	-10.3608
ran	-10.3624
▁tranzit	-10.3633
▁principiu	-10.3641
▁respetar	-10.3654
▁fiscale	-10.3656
▁partida	-10.3662
▁38	-10.3662
▁atenţia	-10.3663
ismo	-10.3665
▁copia	-10.3665
▁concepto	-10.3673
ții	-10.3674
▁palabra	-10.3677
▁standardelor	-10.368
▁mine	-10.3683
▁activo	-10.3687
▁usuarios	-10.3688
▁utilizado	-10.3695
▁întâmplă	-10.3697
▁situaţii	-10.3699
▁rumanía	-10.37
▁órganos	-10.3707
▁exclusivamente	-10.3708
▁civiles	-10.3715
▁judicial	-10.3717
▁membrilor	-10.3718
▁fiecărei	-10.3721
▁adaptar	-10.3721
▁societăţi	-10.3724
▁egal	-10.3729
▁firme	-10.3729
▁democratice	-10.3733
▁finalmente	-10.3734
▁expresión	-10.3735
▁somos	-10.3737
▁regular	-10.3739
▁domeniile	-10.3741
▁totalidad	-10.3745
▁dovadă	-10.3749
▁energia	-10.3749
▁cuvântul	-10.375
▁sujetos	-10.3753
ist	-10.3754
▁garanţii	-10.3755
▁estructuras	-10.3759
▁domnul	-10.3768
▁reglementările	-10.377
▁diez	-10.377
▁similares	-10.3772
▁funcţionarea	-10.3773
mar	-10.3774
▁internaționale	-10.3783
▁presupuestaria	-10.379
▁mijloacele	-10.3791
▁mâine	-10.3791
▁149	-10.3791
▁combinada	-10.3794
▁reale	-10.3795
90	-10.3803
▁organisme	-10.3805
▁70	-10.3808
▁avances	-10.3812
▁informar	-10.3815
▁zahăr	-10.3815
▁bineînţeles	-10.3826
▁91/414	-10.3827
▁furnizează	-10.3833
▁deputaţi	-10.3835
▁preparados	-10.3837
▁monitorizarea	-10.3839
▁rural	-10.3842
▁anumit	-10.3842
▁gasto	-10.3842
▁aborda	-10.3845
▁proprii	-10.3847
▁citado	-10.3848
▁prestación	-10.3855
▁majoră	-10.3858
istas	-10.3859
▁grav	-10.3861
▁responsabile	-10.3862
ir	-10.3866
▁familia	-10.3869
▁încredere	-10.3871
ac	-10.3876
▁lună	-10.3876
▁prelucrare	-10.3878
▁próxima	-10.3882
▁permis	-10.3889
▁nota	-10.3889
▁allá	-10.389
▁costurilor	-10.389
▁estudios	-10.3892
▁3)	-10.3898
▁voluntad	-10.3904
▁transmisión	-10.3904
▁ideea	-10.3913
▁activă	-10.3914
▁includă	-10.3918
▁niciodată	-10.3918
▁45	-10.3919
▁eliminación	-10.3926
▁tarde	-10.3926
▁incidenţa	-10.3932
▁exigencias	-10.3934
▁democrática	-10.3938
▁luchar	-10.3939
▁agricultură	-10.3939
▁cierre	-10.3939
ras	-10.394
▁acea	-10.3941
▁republicii	-10.3943
.».	-10.3943
et	-10.3944
izarea	-10.3946
▁j	-10.3947
▁policía	-10.3947
▁utilizat	-10.3948
▁controalele	-10.3952
▁controale	-10.3954
▁impuse	-10.3958
▁notificarea	-10.3958
▁pozitiv	-10.396
▁publicului	-10.3963
▁selección	-10.3968
▁discutăm	-10.3969
▁femeile	-10.3984
▁presupune	-10.3988
▁continuación	-10.3993
▁lácteos	-10.3994
gen	-10.3998
▁belarus	-10.3999
▁largă	-10.4003
▁1986	-10.4003
▁transportes	-10.4007
lu	-10.4007
▁ocasiones	-10.4012
▁urgente	-10.4013
▁simple	-10.4016
▁viaţă	-10.4026
ían	-10.4026
▁autoriza	-10.4031
▁examinar	-10.4034
▁visados	-10.4034
▁fuerte	-10.4037
▁taxa	-10.4038
▁reserva	-10.4039
▁poderes	-10.4049
▁jocurile	-10.405
▁declaraţii	-10.4055
▁prestaciones	-10.4055
▁analiza	-10.4058
▁amplia	-10.4062
▁pronto	-10.4062
▁ve	-10.4068
▁hincapié	-10.4069
▁urgencia	-10.4069
ntes	-10.4073
▁întrebări	-10.4074
▁máxima	-10.4076
▁anterioare	-10.4076
▁ştim	-10.4077
▁conclusión	-10.4083
▁tampoco	-10.4083
▁constitución	-10.4083
▁emis	-10.409
▁85	-10.4096
▁esfuerzo	-10.4098
▁activ	-10.4106
▁bajos	-10.4112
ida	-10.4113
▁doreşte	-10.412
▁basándose	-10.412
nt	-10.412
▁tone	-10.4121
▁ejercer	-10.4123
eşte	-10.4123
▁rapidă	-10.4125
▁urgenţă	-10.4127
▁piensos	-10.4128
▁element	-10.4128
▁deciziilor	-10.4128
▁activos	-10.413
▁tipuri	-10.4139
ţie	-10.4141
▁ambos	-10.4143
▁equipo	-10.4149
▁eee	-10.415
▁spania	-10.4156
▁recogida	-10.4156
▁copenhague	-10.4171
▁terreno	-10.4171
▁debidamente	-10.4171
ine	-10.4175
▁lucrătorii	-10.4176
bi	-10.4184
▁desfăşoară	-10.4185
▁códigos	-10.4189
▁vota	-10.4191
▁dimensión	-10.4193
▁comunicarea	-10.4194
▁fabricante	-10.4194
▁presentada	-10.4195
▁consumului	-10.4199
st	-10.4208
▁bei	-10.422
▁directrices	-10.4222
▁acogida	-10.4223
▁controlar	-10.4224
▁unidades	-10.4225
▁calităţii	-10.4225
▁elemento	-10.4225
▁orientación	-10.4229
▁riscurilor	-10.4237
▁estatuto	-10.4244
▁elaborat	-10.4245
▁(13)	-10.4253
▁luz	-10.4255
▁cabe	-10.426
▁detaliate	-10.4263
▁liste	-10.4263
▁fizice	-10.4263
▁statistice	-10.4265
5,	-10.4266
▁aprobar	-10.4266
▁verificarea	-10.4266
▁identificarea	-10.4267
▁negocieri	-10.4269
▁denumirea	-10.4269
ş	-10.4279
▁composición	-10.4281
▁propiedad	-10.4284
▁considerat	-10.4286
▁depus	-10.4288
▁constituyen	-10.4288
▁copenhaga	-10.4288
▁comunicaciones	-10.4289
be	-10.4292
▁rapoarte	-10.4304
▁curţii	-10.4304
iendo	-10.4308
▁acordurilor	-10.4313
▁libera	-10.4313
ite	-10.4318
▁semnificative	-10.4324
▁realizadas	-10.4326
▁dialog	-10.4329
▁regiunilor	-10.4334
▁coordonarea	-10.4334
▁soluţii	-10.4335
▁provenind	-10.434
▁reprezentanţi	-10.4346
▁cuvintele	-10.4351
▁fraude	-10.4353
▁înregistrare	-10.436
▁secolul	-10.4363
▁penal	-10.4363
▁toţii	-10.437
▁prezentată	-10.4379
▁acojo	-10.4385
▁civilă	-10.4386
▁totalitate	-10.4389
▁cod	-10.4391
▁capaces	-10.4392
▁interesadas	-10.4393
▁informații	-10.4397
▁hubiere	-10.44
▁materii	-10.44
▁'	-10.4404
▁exige	-10.4406
▁toneladas	-10.4408
▁extinderea	-10.441
▁coloana	-10.4415
▁aviz	-10.4415
▁jos	-10.4419
▁lucrurile	-10.442
▁toți	-10.4421
▁suecia	-10.4422
▁aplicabil	-10.4425
▁propunerii	-10.4428
▁unice	-10.4428
▁iniţiativă	-10.4437
▁componente	-10.444
▁celei	-10.4444
▁individuales	-10.4446
▁etc	-10.4446
▁calcul	-10.4448
▁sine	-10.4448
▁luego	-10.4452
▁conocimientos	-10.4453
▁realizados	-10.4453
sen	-10.4457
▁rezultă	-10.4467
▁%.	-10.447
▁retos	-10.4471
▁deba	-10.4471
▁competitivitate	-10.4473
▁colegii	-10.4475
▁sărăciei	-10.4475
▁măsline	-10.448
▁explotaciones	-10.4483
▁significativa	-10.4484
▁estrecha	-10.4487
▁olímpicos	-10.4492
▁pido	-10.4493
▁deveni	-10.4495
▁muestra	-10.4503
▁pieței	-10.4503
▁centrul	-10.4506
▁compra	-10.4506
▁éstos	-10.4513
▁revizuirea	-10.4515
▁sigur	-10.4521
▁complace	-10.4528
▁volver	-10.4531
▁sediul	-10.4535
▁tecnología	-10.4536
▁6.	-10.4543
▁puternică	-10.4546
▁ucraina	-10.4552
▁consultarea	-10.4552
▁codul	-10.4556
▁efectuarea	-10.4558
▁42	-10.4571
▁centros	-10.4573
▁consumatorii	-10.4588
2000	-10.4588
▁banca	-10.459
▁specii	-10.4598
▁electronice	-10.4603
▁riscul	-10.4605
▁relaţiile	-10.4609
▁preţ	-10.4616
fic	-10.4621
▁39	-10.4623
▁revizuire	-10.4625
▁esențial	-10.4626
▁pacientes	-10.4627
/2001	-10.4627
▁comercială	-10.4628
▁transferencia	-10.4628
▁administrativa	-10.4631
punerii	-10.4637
▁expedido	-10.4639
▁funcionarios	-10.4641
▁altfel	-10.465
▁emisión	-10.465
vo	-10.465
ver	-10.4652
▁tra	-10.4652
▁internațional	-10.4658
▁determina	-10.4658
gún	-10.4663
▁aderarea	-10.4669
▁expediente	-10.4674
▁ppe	-10.4683
▁tareas	-10.4686
▁contengan	-10.4688
▁celui	-10.4689
▁hará	-10.4692
▁acțiune	-10.4693
▁ţină	-10.4694
▁debatir	-10.4695
▁minorías	-10.47
ante	-10.47
▁preveni	-10.47
▁metoda	-10.4703
▁clima	-10.4709
▁hacen	-10.4709
▁adesea	-10.4711
▁provin	-10.4728
▁jumătate	-10.4734
▁adăugată	-10.4736
▁exportaciones	-10.4743
▁propriile	-10.4748
▁encuentran	-10.4752
▁poziţie	-10.4757
▁angajament	-10.4762
▁obras	-10.4776
▁dispone	-10.4777
94	-10.4778
▁aferente	-10.4779
▁portugalia	-10.4782
▁directivele	-10.4784
▁rápida	-10.4788
ș	-10.4788
▁activităţii	-10.4791
▁serviciul	-10.4791
▁limitar	-10.4792
▁punctele	-10.4794
▁odată	-10.4797
▁lengua	-10.4798
▁croacia	-10.4804
▁kg	-10.4817
▁considere	-10.4818
▁integrarea	-10.4819
▁aduse	-10.4822
lă	-10.4832
▁aquellas	-10.4834
▁8,	-10.4837
▁esperamos	-10.4839
▁corral	-10.4844
▁respectate	-10.4852
▁deţine	-10.4857
▁denominaciones	-10.4859
▁garanteze	-10.4859
▁capăt	-10.4859
▁seminţelor	-10.4862
▁presupuestario	-10.4869
▁ponentes	-10.4869
▁tarea	-10.4869
▁vaya	-10.487
▁contacto	-10.487
▁ecus	-10.4885
▁post	-10.4886
▁celebración	-10.489
▁provocări	-10.4892
▁scrise	-10.4896
▁regională	-10.4898
▁recepción	-10.4898
▁importanţă	-10.4898
▁prohibir	-10.4904
▁organizaţii	-10.4908
▁permitirá	-10.4909
▁hombres	-10.4911
▁lege	-10.4919
▁gaze	-10.492
▁economías	-10.4922
pre	-10.4925
▁edificios	-10.4925
▁manifiesto	-10.4929
▁terrorismo	-10.4929
▁presentadas	-10.4938
▁obţinut	-10.4938
▁înaintea	-10.4939
▁utilizează	-10.4945
▁autorităţi	-10.4946
▁globalización	-10.4947
tar	-10.4955
▁integral	-10.4958
ic	-10.4962
▁ambas	-10.4963
▁elimină	-10.4964
▁superar	-10.4967
▁velarán	-10.4973
era	-10.4975
▁conjunta	-10.4977
▁diferente	-10.498
ros	-10.4981
▁refieren	-10.4981
▁exprim	-10.4993
▁organismelor	-10.4996
texto	-10.4999
▁util	-10.4999
▁degrabă	-10.5001
▁correcto	-10.5001
▁colega	-10.5005
▁stricte	-10.5008
▁basada	-10.5013
▁siguen	-10.5015
▁200	-10.5017
▁costa	-10.5018
11	-10.5037
▁cifra	-10.504
bo	-10.5041
▁adecuados	-10.5046
▁noilor	-10.5053
80	-10.5054
ția	-10.5057
▁parţial	-10.5058
▁cálculo	-10.5059
▁comunicare	-10.5061
▁próximos	-10.5063
▁bar	-10.5066
▁muerte	-10.5067
▁preşedinţiei	-10.5068
▁r	-10.5074
▁refugiados	-10.5075
cadru	-10.5075
▁acela	-10.5078
91	-10.5082
▁operaţiunile	-10.5084
▁oriental	-10.5085
▁conflictos	-10.5092
▁consultaţi	-10.5093
▁actul	-10.5095
▁folosit	-10.5096
▁problemelor	-10.5099
▁claridad	-10.51
▁relevanţă	-10.5104
▁00	-10.5109
▁apliquen	-10.5115
▁fe	-10.5118
▁cererilor	-10.5118
▁masă	-10.5124
▁ciertas	-10.5126
▁períodos	-10.5127
text	-10.5131
▁accidente	-10.5133
▁campo	-10.5134
▁schimbul	-10.514
▁inspecţie	-10.5144
▁frecuencia	-10.5148
▁acel	-10.5154
po	-10.5156
▁2000,	-10.5157
▁autorizaţia	-10.5166
▁discuţie	-10.5169
▁imponer	-10.517
▁răspunsul	-10.5174
//	-10.5175
▁9,	-10.5176
▁afectadas	-10.5183
▁establecerse	-10.5184
▁originare	-10.519
▁primă	-10.519
▁litera	-10.5196
▁familias	-10.5202
▁pie	-10.5207
▁documentelor	-10.5208
▁regulado	-10.5217
▁44	-10.5217
▁mención	-10.5218
30	-10.5218
▁validez	-10.5218
▁demonstrat	-10.5221
▁estadística	-10.5221
▁experienţa	-10.5225
▁săi	-10.5234
▁gaza	-10.5239
▁científico	-10.5245
▁adoptarse	-10.5249
tu	-10.5249
▁destinat	-10.5252
▁conţinut	-10.5256
▁suplimentară	-10.5256
▁economie	-10.5257
▁dovada	-10.5258
▁producător	-10.5262
▁mo	-10.5264
▁tipul	-10.5267
iza	-10.5267
▁destinado	-10.527
▁efecte	-10.527
▁radio	-10.5277
▁cuprinse	-10.5277
▁cheltuieli	-10.5277
▁aplique	-10.5288
ido	-10.5288
▁importurilor	-10.5288
▁iniţiativa	-10.5291
▁considerăm	-10.5305
▁concrete	-10.5307
ria	-10.5309
ment	-10.5312
▁encuentra	-10.5312
▁obstáculos	-10.5312
▁logrado	-10.5313
▁echivalente	-10.5318
▁acţiunilor	-10.5318
▁protecția	-10.5323
▁industriale	-10.5324
▁agencias	-10.5325
▁operaţiuni	-10.5326
▁alimentar	-10.5326
▁so	-10.5326
▁aceite	-10.5328
man	-10.5328
ază	-10.5335
▁deși	-10.5337
▁particularmente	-10.534
▁creemos	-10.5341
▁asia	-10.5343
▁pagar	-10.5346
▁intrării	-10.5347
▁amplio	-10.5352
▁dreptate	-10.5355
▁1985	-10.5358
ha	-10.5366
▁precedent	-10.537
▁(14)	-10.5375
▁unii	-10.5375
▁vest	-10.5377
▁protecţiei	-10.5377
▁omc	-10.5378
▁guvernului	-10.538
▁cualificada	-10.5381
▁navele	-10.5388
che	-10.5394
▁înţelege	-10.5395
▁tomado	-10.54
▁înlocuiesc	-10.5406
▁proiectului	-10.541
▁licitación	-10.5414
▁marcado	-10.5421
du	-10.5427
▁considerată	-10.5431
▁posterior	-10.5431
▁comitet	-10.5432
▁2010.	-10.5434
▁societăţilor	-10.545
▁interzice	-10.5451
▁universal	-10.5454
▁suficientes	-10.5454
ll	-10.5455
▁felicitar	-10.5455
▁vía	-10.5465
▁adaptarea	-10.5465
▁luând	-10.5478
▁decidido	-10.549
▁apă	-10.5492
▁corresponde	-10.5493
▁quiere	-10.5494
▁95	-10.5496
▁aprovechar	-10.5497
▁nucleares	-10.5506
▁beneficiarios	-10.5507
▁género	-10.551
▁propuesto	-10.551
▁aparatos	-10.5511
▁mano	-10.5512
▁restituciones	-10.5514
▁avans	-10.5514
▁posibile	-10.5515
▁margen	-10.5515
▁substanţele	-10.5518
▁nucleară	-10.5523
▁inicial	-10.5525
▁término	-10.5527
▁organizaţiilor	-10.5532
▁personales	-10.5539
▁zonei	-10.5541
▁pacto	-10.5548
▁organizaţiei	-10.5556
▁afirma	-10.556
▁respectării	-10.5567
▁găsi	-10.5568
▁indica	-10.5569
▁lugares	-10.5571
▁exclusión	-10.5572
▁modelul	-10.558
▁concretas	-10.558
▁recientemente	-10.5583
▁libere	-10.5584
▁vayan	-10.5585
▁miles	-10.5588
▁rápidamente	-10.5592
▁august	-10.5592
▁hechos	-10.5594
▁populaţiei	-10.5595
70	-10.5597
▁cazului	-10.5598
oare	-10.5602
▁lucrătoare	-10.5606
▁reconocer	-10.5611
▁incluirá	-10.5617
▁pieţele	-10.5617
▁includ	-10.5624
▁identificare	-10.5628
▁proprie	-10.563
▁reduse	-10.5635
il	-10.5636
▁luată	-10.5637
▁substanţelor	-10.5637
▁muestras	-10.5639
▁legislativ	-10.5639
▁situație	-10.564
▁efectuată	-10.5641
▁publicidad	-10.5641
▁vino	-10.5643
▁private	-10.5646
▁abastecimiento	-10.5648
▁contenidos	-10.5653
▁deschiderea	-10.5654
▁exprimat	-10.5655
▁vrea	-10.5655
▁negociación	-10.5658
▁concluziile	-10.567
▁intra	-10.5672
▁protecție	-10.5674
▁existenţa	-10.5675
▁lumii	-10.5677
▁recomendación	-10.5682
▁dice	-10.5683
▁gravă	-10.5684
qui	-10.5689
▁cambiar	-10.5691
▁dificil	-10.5693
▁medicale	-10.5697
▁companii	-10.5703
▁protejate	-10.5706
▁definir	-10.5708
▁arătat	-10.5715
▁41	-10.5715
▁momentos	-10.572
▁indicate	-10.5721
▁avanzar	-10.5721
▁1976	-10.5721
▁regulilor	-10.5723
▁comunicará	-10.5724
▁aplicat	-10.5725
▁participantes	-10.5726
▁naţiunilor	-10.5726
▁buenas	-10.5728
▁legislativo	-10.5732
▁rămân	-10.5737
▁titlu	-10.5738
▁factores	-10.5738
▁vită	-10.5749
▁aeriene	-10.5751
▁reuşit	-10.5759
▁depinde	-10.5759
▁pleno	-10.576
io	-10.5762
▁rezultatelor	-10.5763
▁efectuat	-10.5765
▁părerea	-10.5766
▁fiscales	-10.5768
▁completo	-10.5769
▁recente	-10.5769
▁variedad	-10.5772
▁residencia	-10.5776
▁ocupa	-10.5781
▁alguno	-10.5782
sv	-10.5782
▁contiene	-10.5783
▁unităţi	-10.5786
▁ridicate	-10.5788
▁încheiate	-10.5791
▁localidades	-10.5795
▁cantităţi	-10.5798
men	-10.58
▁mediterráneo	-10.5807
▁37	-10.5808
▁consolida	-10.5815
▁equivalentes	-10.5816
▁paragraful	-10.582
▁dezbateri	-10.5824
▁eficienţa	-10.5828
▁asistenţa	-10.5828
▁acordare	-10.5828
▁justo	-10.5836
▁1975	-10.5837
(4),	-10.5838
chi	-10.5857
▁laptelui	-10.5871
tru	-10.5873
▁coherente	-10.5877
▁socio	-10.588
▁prevederilor	-10.588
▁taxele	-10.5885
▁fuerzas	-10.5886
▁ter	-10.5888
▁următor	-10.5891
bil	-10.5892
▁surse	-10.5893
▁disponible	-10.5894
▁obligaţiilor	-10.5897
▁taxelor	-10.5897
▁pesqueros	-10.5898
▁mondiale	-10.5901
▁geografice	-10.591
▁contact	-10.591
▁sfârşit	-10.591
▁ştiu	-10.5911
▁quien	-10.5913
▁prescripciones	-10.5915
▁impedir	-10.5917
▁pretende	-10.5918
▁democrático	-10.592
▁decis	-10.5922
▁noștri	-10.5923
▁permiso	-10.5924
▁energético	-10.5929
▁viii	-10.593
▁1980	-10.5931
▁ampliar	-10.5947
▁pena	-10.595
▁directe	-10.5951
▁denominado	-10.5952
▁desempeñar	-10.5956
▁verdad	-10.5958
▁ajuste	-10.5963
▁trebuit	-10.5965
▁maritime	-10.5966
▁oral	-10.597
▁300	-10.5971
▁realitate	-10.5971
▁área	-10.5982
▁tratados	-10.5987
▁consiste	-10.5987
▁sperăm	-10.5987
ez	-10.599
▁părţilor	-10.5992
▁bienestar	-10.6002
izare	-10.6003
▁acontecimientos	-10.6006
▁război	-10.6009
▁movilidad	-10.6011
▁hablando	-10.6012
▁acompañadas	-10.6018
▁ciertos	-10.6023
▁presenta	-10.6024
▁promova	-10.6031
▁recunoscute	-10.6031
▁quieren	-10.6031
▁observaciones	-10.6038
▁țărilor	-10.6039
▁estudio	-10.6043
▁absenţa	-10.6046
▁preparación	-10.6046
▁ad	-10.6049
▁textile	-10.6051
▁aplican	-10.6052
▁prevăd	-10.6055
▁útil	-10.606
12	-10.6063
▁modelos	-10.6071
▁scară	-10.6072
▁vehiculelor	-10.6073
ina	-10.6076
▁vacuno	-10.6081
▁transacciones	-10.609
▁solicitado	-10.6094
▁autoritate	-10.6095
▁dumping	-10.6095
▁semnat	-10.6098
▁frase	-10.6098
▁defender	-10.6099
▁permítanme	-10.61
▁articolele	-10.6101
▁olimpice	-10.6104
▁transfer	-10.6106
▁mulți	-10.6107
▁numărului	-10.6108
▁cărei	-10.6108
com	-10.6113
▁serios	-10.6113
▁pachet	-10.6115
▁eliberarea	-10.6116
▁exposición	-10.6117
▁inclus	-10.6118
▁totul	-10.6124
▁reglamentación	-10.6125
▁întâi	-10.6125
▁datoria	-10.6126
▁emisiile	-10.6126
▁partidos	-10.6128
▁taxei	-10.6132
▁eventual	-10.6135
▁inmigrantes	-10.6136
▁concurenţei	-10.6136
▁criteriilor	-10.6141
▁sarcina	-10.6143
▁investigaciones	-10.6144
▁libertate	-10.6146
▁privat	-10.6155
▁frutas	-10.6157
▁recunoaşterea	-10.6159
▁mantequilla	-10.6161
▁incluya	-10.6168
cul	-10.6172
cómo	-10.6174
tas	-10.6175
▁mele	-10.6177
▁vizate	-10.6178
▁aprobate	-10.6184
▁destinada	-10.6186
▁podido	-10.6188
▁definiciones	-10.6188
iști	-10.6195
▁componentes	-10.6196
▁bruxelles	-10.6197
▁cerca	-10.6199
▁merită	-10.6203
▁clasificarea	-10.6203
▁examinarea	-10.6204
▁reprezentanţii	-10.6218
▁alcanzado	-10.6222
▁rămână	-10.6223
▁japón	-10.6224
▁proiectele	-10.6229
▁deosebită	-10.6229
▁locului	-10.6233
▁ocazie	-10.6233
▁nadie	-10.6233
▁mí	-10.6244
▁reprezentantul	-10.6245
▁săptămâna	-10.6251
▁positiva	-10.6255
▁propias	-10.6256
▁văzut	-10.626
▁locurile	-10.6261
▁preşedintelui	-10.6271
▁materiale	-10.6272
▁societăţile	-10.6275
▁demuestra	-10.6276
▁autorizare	-10.6279
▁menor	-10.6293
▁sumă	-10.6296
▁esperar	-10.6298
▁legislaţiilor	-10.6298
▁traficului	-10.6299
13	-10.63
▁completamente	-10.63
▁quedan	-10.6301
▁identificar	-10.6301
ere	-10.6302
▁specificate	-10.6311
▁mm	-10.6311
▁estaba	-10.6319
▁mínima	-10.6321
▁atingerea	-10.6324
▁capaz	-10.6325
▁întreprindere	-10.6328
▁fijados	-10.6329
▁rendimiento	-10.633
▁semnal	-10.6331
▁ma	-10.634
▁repede	-10.6341
▁rog	-10.6341
▁llevado	-10.6342
▁allí	-10.6342
▁primi	-10.6343
▁temporar	-10.6346
▁emergencia	-10.635
▁determinada	-10.6351
▁modalitatea	-10.6353
▁gazdă	-10.6359
▁calificată	-10.6361
▁pide	-10.6362
▁2001,	-10.6365
▁obtenido	-10.6367
▁diversos	-10.6369
▁obtenidos	-10.637
▁pieţe	-10.6376
▁privado	-10.6376
▁fabricantes	-10.6378
▁harán	-10.6381
▁mesa	-10.6385
▁bovina	-10.6389
▁san	-10.6399
▁jurídicas	-10.6402
▁peligrosas	-10.6411
▁consumatori	-10.6411
▁vehicule	-10.6412
▁permiteţi	-10.6414
▁basado	-10.6415
▁certificatele	-10.6427
▁cantitate	-10.6436
▁vârstă	-10.6441
▁expirare	-10.6441
▁pozitive	-10.6442
ue	-10.6444
▁acaba	-10.6445
▁vigente	-10.6449
▁reziduuri	-10.6457
▁depusă	-10.6461
▁oferite	-10.6461
▁dispune	-10.6465
▁principii	-10.6466
▁confruntăm	-10.6466
▁şapte	-10.6468
▁ecológica	-10.6477
▁agosto	-10.6478
▁bruselas	-10.6478
▁exercitarea	-10.6479
▁principiului	-10.648
▁ajutoare	-10.6484
sc	-10.6493
ân	-10.6494
▁hortalizas	-10.6497
▁costuri	-10.6504
▁referentes	-10.6505
89	-10.6505
▁valorilor	-10.651
▁verifica	-10.6514
▁física	-10.6514
▁visado	-10.6514
▁subliniază	-10.6515
▁sumele	-10.6516
▁protocolul	-10.6517
▁propone	-10.6518
▁doble	-10.6523
▁depósito	-10.6523
▁rubrica	-10.6524
▁aéreas	-10.653
▁cifras	-10.653
▁demonstrează	-10.6534
▁ungaria	-10.6534
▁trabajando	-10.6535
▁dovedit	-10.6537
▁menţinerea	-10.654
▁presupuestos	-10.6541
▁indicaţii	-10.6542
▁declarat	-10.6547
▁afectado	-10.6556
▁întâmplat	-10.6557
▁ştiinţific	-10.6558
▁doce	-10.6558
▁banii	-10.6561
▁ausencia	-10.6561
per	-10.6567
▁pi	-10.6567
▁marítima	-10.6569
▁te	-10.6573
▁includerea	-10.6581
▁beneficiario	-10.6582
▁celebrar	-10.6588
▁obligatorie	-10.6589
▁inspecciones	-10.659
▁concretamente	-10.6591
▁punem	-10.6593
▁etichetarea	-10.6594
▁semnificativă	-10.6594
▁precedente	-10.6597
▁autorizaţie	-10.6598
▁suficientă	-10.6599
▁ajustare	-10.6599
▁basa	-10.6604
▁participa	-10.6605
▁dis	-10.6607
▁zece	-10.6617
▁letonia	-10.6617
▁progres	-10.6619
▁excepto	-10.662
▁oferit	-10.6622
▁legată	-10.6622
ble	-10.6622
▁identidad	-10.6627
▁aditivos	-10.6627
▁actele	-10.6628
▁(15)	-10.6628
▁islas	-10.6629
▁garanţie	-10.6637
▁strategii	-10.6642
▁soy	-10.6647
▁licencia	-10.6649
▁nivelurile	-10.6662
▁devine	-10.6663
▁instalación	-10.6674
▁carbon	-10.6677
▁sometidos	-10.6677
▁administrativă	-10.6678
▁procedente	-10.6684
▁tri	-10.6686
▁ora	-10.669
▁garantice	-10.6691
▁formular	-10.6691
▁opiniones	-10.6692
cs	-10.6694
▁omologare	-10.6697
▁dă	-10.6699
ista	-10.67
▁dificilă	-10.6701
▁1493/1999	-10.6702
▁regulamentele	-10.6702
▁entrar	-10.6702
▁1968	-10.6703
▁durată	-10.6704
ent	-10.6706
▁48	-10.6711
▁autoritățile	-10.6714
▁corto	-10.6716
▁văd	-10.6718
▁transición	-10.672
▁controlului	-10.6722
ad	-10.6723
▁prevenir	-10.6725
▁intereselor	-10.673
ier	-10.6737
▁durabile	-10.6738
▁avance	-10.6739
▁național	-10.674
▁administraţie	-10.6741
▁efectivamente	-10.6744
▁1970	-10.6744
▁sola	-10.675
▁apropiado	-10.6758
▁vorbit	-10.6764
▁listas	-10.6765
▁trans	-10.6766
▁bugetară	-10.6766
▁hagan	-10.677
▁instituirea	-10.6778
▁2014	-10.6783
▁operaţiunilor	-10.6788
▁întreb	-10.679
lui	-10.6791
▁vegetales	-10.6796
▁2081/92	-10.6796
▁vamală	-10.6806
.1	-10.6806
▁pone	-10.6813
▁bilaterale	-10.6815
`	-10.6815
▁grupurilor	-10.6821
▁agenţiei	-10.6822
▁furnizeze	-10.6825
▁efectueze	-10.6825
▁91/493	-10.6831
▁guvernele	-10.6832
ici	-10.6833
▁pesquera	-10.6834
▁partenerii	-10.6836
▁omg	-10.6836
▁frescas	-10.6836
▁funcţionare	-10.6843
02	-10.6845
▁transferul	-10.685
▁stabilitatea	-10.6859
▁vehicul	-10.686
▁asigurări	-10.6868
rie	-10.6871
▁órgano	-10.6872
▁solicităm	-10.6874
▁instituit	-10.6879
▁reciprocă	-10.6879
▁voy	-10.6882
▁schimbare	-10.6883
▁autorizaciones	-10.6883
0	-10.6889
ală	-10.6889
▁casilla	-10.6891
▁convenţiei	-10.6892
▁canadá	-10.6892
▁vigentes	-10.6893
▁conformes	-10.6894
▁îmbunătățire	-10.6901
▁utilizando	-10.6906
▁ore	-10.6911
▁mutat	-10.6912
▁problemei	-10.6916
▁industriales	-10.6918
▁separat	-10.6922
▁provenite	-10.6925
▁reglementărilor	-10.6926
▁agenţia	-10.6927
zo	-10.6934
▁uităm	-10.694
▁comentarios	-10.6943
▁concurenţă	-10.6949
▁îndeplineşte	-10.6949
▁încheie	-10.6958
▁celebrado	-10.696
▁domnului	-10.696
▁valorii	-10.6965
▁cazurilor	-10.6967
▁intenţionează	-10.6969
▁evoluţia	-10.6969
responsabilitate	-10.6969
▁elección	-10.6969
▁agente	-10.6973
▁culturale	-10.6973
▁efectuados	-10.6976
▁humanitaria	-10.6978
▁daños	-10.6982
▁territorial	-10.6984
▁modalităţi	-10.6986
▁obligaţii	-10.6991
▁55	-10.6994
▁lleva	-10.6995
▁lenguas	-10.6995
▁razonable	-10.6995
▁reglementat	-10.6997
▁sé	-10.6999
tul	-10.7001
▁investiții	-10.7005
rile	-10.7007
▁monetaria	-10.7008
▁cor	-10.7011
▁înregistrarea	-10.7012
85	-10.7014
▁luptă	-10.7014
▁sectoare	-10.7015
▁raportorul	-10.7016
▁creat	-10.7017
▁conţină	-10.7017
▁mínimas	-10.7019
▁comp	-10.702
19	-10.7024
▁asociaciones	-10.7027
▁obţinerea	-10.7028
▁respectivamente	-10.7029
▁seno	-10.7034
▁juntos	-10.7036
▁oliva	-10.7037
▁depunerea	-10.7042
▁of	-10.7045
▁adică	-10.7047
▁maritim	-10.7049
▁utilicen	-10.7054
▁grupurile	-10.7056
▁pequeños	-10.7061
▁auzit	-10.7061
▁tercera	-10.7063
▁bcn	-10.7068
tro	-10.7068
▁eliberate	-10.707
▁finanțare	-10.7074
▁finlandia	-10.7075
▁satisface	-10.7082
▁contractului	-10.7083
nţi	-10.7087
▁firma	-10.7097
▁asigurării	-10.7098
▁bunurilor	-10.7102
▁mostrar	-10.7103
▁reuniones	-10.7105
▁futura	-10.7105
15	-10.7109
▁esenţială	-10.7112
▁inserează	-10.7115
▁utilizată	-10.7119
▁mujer	-10.7121
ig	-10.7123
▁efectuadas	-10.7123
▁considerarse	-10.7125
▁rurale	-10.7125
▁transfronteriza	-10.7134
▁américa	-10.7135
▁determină	-10.7137
▁adoptării	-10.7139
▁desemnate	-10.7139
▁determinará	-10.7139
▁46	-10.714
▁egipto	-10.7142
▁ocasión	-10.7144
▁concentración	-10.7145
em	-10.7145
▁lunii	-10.7146
▁economii	-10.7152
▁principiilor	-10.7154
▁iniţial	-10.7159
▁empezar	-10.7162
▁corea	-10.7163
▁cumple	-10.7163
▁aduanera	-10.7164
▁textiles	-10.7168
ú	-10.7169
▁sol	-10.7169
▁efectivo	-10.7172
▁entorno	-10.7174
▁atenție	-10.7177
▁primirea	-10.7178
▁adoptada	-10.7179
▁transmit	-10.7181
▁oricărui	-10.7184
▁pa	-10.7184
▁consultas	-10.7186
01	-10.7193
▁crize	-10.7194
▁grad	-10.7195
▁contractelor	-10.7203
▁2377/90	-10.7203
▁concluir	-10.7203
▁enumerados	-10.7204
▁administrativos	-10.7204
▁altul	-10.721
▁proiectelor	-10.7212
▁opt	-10.7218
▁vecinos	-10.722
▁desemnat	-10.7221
▁abrogă	-10.7223
▁taxă	-10.7223
▁presus	-10.7223
▁requisito	-10.7224
▁certificatului	-10.7226
▁valabil	-10.7238
▁democratic	-10.7238
▁luarea	-10.7241
▁contribuţia	-10.7243
▁influencia	-10.7243
mă	-10.7243
▁violaciones	-10.7243
▁proaspătă	-10.7244
▁participă	-10.7245
▁independente	-10.7246
▁accesului	-10.7249
▁limitată	-10.7252
▁conscientes	-10.7254
▁contingente	-10.7257
▁îndeplini	-10.726
▁solidaritatea	-10.7261
▁reciente	-10.7261
▁presentarse	-10.7262
▁intentar	-10.7265
▁alături	-10.7269
▁vară	-10.727
▁sanitarios	-10.7271
▁derogări	-10.7274
ească	-10.7274
▁participante	-10.7281
▁belarús	-10.7283
▁mutandis	-10.7283
▁99	-10.7289
▁error	-10.7289
▁uşor	-10.7293
▁bilaterales	-10.7296
▁misión	-10.7296
▁rapoartele	-10.7299
▁emise	-10.7303
▁baja	-10.7306
especificaciones	-10.7306
▁reprezenta	-10.7311
fo	-10.7311
▁consumul	-10.7312
▁bosnia	-10.7313
▁larg	-10.7318
▁constată	-10.7321
▁folosi	-10.7327
▁ați	-10.7327
▁franţa	-10.7333
▁cuarto	-10.7334
hr	-10.7339
▁tehnologii	-10.7342
▁prezenţa	-10.7343
▁identifica	-10.735
▁deschis	-10.735
▁2200/96	-10.7353
▁postura	-10.7354
▁malta	-10.7354
▁descărcarea	-10.7359
▁elevado	-10.7359
▁monetare	-10.7361
▁leyes	-10.7363
▁greu	-10.7364
▁territorios	-10.7364
▁categorie	-10.7366
▁bazată	-10.7367
▁eficaces	-10.7367
▁băncii	-10.7372
▁piață	-10.7373
▁resoluciones	-10.7373
▁copiii	-10.7375
▁masa	-10.7376
▁lucrători	-10.7381
izar	-10.7383
▁exportador	-10.7386
▁mii	-10.7388
▁1996,	-10.7389
▁coherencia	-10.7393
▁turismo	-10.7399
▁solicitate	-10.74
▁7,	-10.74
▁finală	-10.7401
▁factori	-10.7403
▁diversas	-10.7404
▁directivelor	-10.7404
▁solicitare	-10.7407
cri	-10.7408
▁formarea	-10.7411
▁amendamente	-10.7413
▁licenţe	-10.7415
▁sexual	-10.7417
▁porcina	-10.7419
▁títulos	-10.7419
▁informa	-10.7423
▁limite	-10.7424
br	-10.7432
▁țara	-10.7434
▁reproducción	-10.7434
▁ecologică	-10.7438
▁tranziţie	-10.7444
▁2011.	-10.7446
▁carnea	-10.7453
▁efectuarse	-10.7453
▁propósito	-10.7454
▁riscurile	-10.7457
▁vieţii	-10.7469
met	-10.747
▁rutier	-10.7472
▁deputat	-10.7475
▁1979	-10.7481
▁atac	-10.7482
▁redusă	-10.7482
▁brut	-10.7484
▁incumplimiento	-10.7484
▁compensación	-10.7485
▁credem	-10.7488
▁responsabilă	-10.749
▁representan	-10.749
▁minimă	-10.7491
▁alocate	-10.7492
▁democratică	-10.7493
▁exprimate	-10.7494
▁depozitare	-10.7495
arse	-10.7496
▁umană	-10.7496
▁prevederi	-10.7502
▁establecerá	-10.7502
▁competenţa	-10.7505
gar	-10.7506
▁alternative	-10.7508
▁ferm	-10.7512
sta	-10.7512
▁î	-10.7513
▁empleos	-10.7514
▁propria	-10.7515
▁conformităţii	-10.7516
ză	-10.7517
▁nevoile	-10.7518
▁2015	-10.7519
▁strânsă	-10.7519
▁certificatelor	-10.7523
▁hacerse	-10.7526
▁(16)	-10.7527
▁lamentablemente	-10.7527
▁breve	-10.7527
▁partidului	-10.7528
▁líneas	-10.7528
▁beneficiarse	-10.7529
▁schimbări	-10.7529
▁alimentelor	-10.7531
▁ba	-10.7534
▁asignación	-10.7536
▁plăţi	-10.7538
▁deputați	-10.754
▁procent	-10.754
▁pace	-10.7543
▁asumir	-10.7545
6,	-10.7546
▁geográfica	-10.7547
▁concedido	-10.7548
▁aduc	-10.7549
▁finale	-10.755
tin	-10.755
▁x	-10.7554
▁aceşti	-10.7554
▁establezca	-10.7555
▁comienzo	-10.7557
▁81	-10.7559
▁previo	-10.7559
▁fácil	-10.756
▁electricidad	-10.7566
▁diversidad	-10.7566
▁cantităţilor	-10.7567
▁pérdida	-10.7568
▁carbono	-10.7568
▁1972	-10.7573
â	-10.7575
▁pensii	-10.7586
▁asistență	-10.7587
▁envases	-10.7596
▁lucrează	-10.7597
▁macedonia	-10.7597
▁antigua	-10.7599
▁fija	-10.7601
▁incluyen	-10.7601
▁companiile	-10.7601
▁superficies	-10.7604
▁furniza	-10.7605
▁privință	-10.7607
▁intervenciones	-10.7608
▁preocupaciones	-10.7608
fer	-10.761
▁1978	-10.7614
▁tinerilor	-10.7614
▁suspensión	-10.7618
▁furaje	-10.7619
mer	-10.7628
▁practicile	-10.7629
▁revisar	-10.763
▁întreg	-10.7632
▁compañía	-10.7641
▁dispositivos	-10.7641
▁contractele	-10.7641
▁parcial	-10.7642
▁licenţă	-10.7649
▁îmbunătăţi	-10.7654
▁făcută	-10.7656
▁ministros	-10.7657
▁puterea	-10.7661
▁ciencia	-10.7663
▁sanitario	-10.7671
▁plena	-10.7671
▁incremento	-10.7672
▁singura	-10.7672
▁participe	-10.7672
pro	-10.7674
▁biroului	-10.7681
▁legea	-10.7682
▁cumpla	-10.7689
87	-10.7691
▁încearcă	-10.77
▁flexibilidad	-10.7702
▁codurile	-10.7704
▁indicar	-10.7709
▁primei	-10.7711
▁statut	-10.7713
ton	-10.7715
des	-10.7715
una	-10.7721
▁tendremos	-10.7721
▁ansamblu	-10.7722
▁proveedores	-10.7725
▁11,	-10.7729
▁susţinut	-10.773
▁medicală	-10.7736
veţi	-10.7738
):	-10.7745
▁mesaj	-10.7747
▁niveluri	-10.775
▁agenţii	-10.775
▁conseguido	-10.7753
▁dimensiunea	-10.7753
▁poziția	-10.7753
▁vedem	-10.7753
▁suficientemente	-10.7753
como	-10.7754
▁renovables	-10.7755
▁mínimos	-10.7756
▁aceptación	-10.7764
▁progresos	-10.7765
vă	-10.7768
▁vânzarea	-10.7768
▁independientes	-10.7779
▁tratate	-10.7783
▁bugetar	-10.7787
▁delegación	-10.7795
▁îndeplinire	-10.7795
▁riscuri	-10.7796
▁genera	-10.7799
▁istoria	-10.7805
▁deşeuri	-10.7805
▁posteriormente	-10.7808
▁reglementarea	-10.7814
cia	-10.7819
▁unitate	-10.7823
▁eliberat	-10.7824
▁inaceptable	-10.7828
▁7.	-10.783
▁%,	-10.7834
▁așadar	-10.7837
▁firmemente	-10.784
▁menores	-10.7841
▁competent	-10.7842
▁completă	-10.7844
amos	-10.7844
▁elaborado	-10.7844
▁petróleo	-10.7847
▁simplificar	-10.7849
▁comenzar	-10.785
▁câte	-10.785
▁constă	-10.7859
dores	-10.7861
▁concederá	-10.7862
bile	-10.7866
▁saben	-10.7867
▁2658/87	-10.7868
▁convención	-10.7868
bles	-10.7872
▁básicos	-10.7881
▁armonizate	-10.7888
▁instituţie	-10.7894
▁seminţele	-10.7899
▁hotărând	-10.79
▁bazate	-10.7906
▁consenso	-10.7913
ren	-10.7915
▁echilibru	-10.7918
▁încep	-10.7919
▁bordo	-10.7921
▁sursă	-10.7922
fin	-10.7923
▁cuotas	-10.7923
▁inmediato	-10.7924
▁descrise	-10.7927
▁apele	-10.7929
▁referencias	-10.7931
▁japonia	-10.7932
▁efectuará	-10.7936
țe	-10.794
▁tabaco	-10.7942
▁afară	-10.7943
▁aflat	-10.7943
nţă	-10.7944
▁menţine	-10.7947
▁interese	-10.7947
▁echipamente	-10.7951
▁1981	-10.7951
40	-10.7953
▁uneori	-10.7953
▁cheie	-10.7953
▁tiempos	-10.7954
▁creşterii	-10.7959
▁substanţă	-10.7964
▁modificará	-10.797
▁garantare	-10.797
pă	-10.7972
▁indicado	-10.7977
▁amendamentele	-10.7978
▁imp	-10.7978
▁vías	-10.798
▁dudas	-10.7985
▁rumania	-10.7985
▁cultivo	-10.7988
▁añadir	-10.7991
▁inciso	-10.7996
▁atinge	-10.7998
▁utilizadas	-10.7998
▁fuente	-10.8002
▁exportul	-10.8005
▁captura	-10.8007
▁eligibile	-10.8009
▁omologarea	-10.8012
tur	-10.8014
▁redus	-10.8018
▁pensar	-10.8018
▁speciile	-10.8024
▁exerciţiu	-10.8025
▁madeira	-10.8028
▁sume	-10.8028
▁organizaţia	-10.8028
▁internațională	-10.8029
▁1977	-10.803
▁mandat	-10.8031
▁determinarea	-10.8031
▁distinto	-10.8031
ism	-10.8035
▁raportorului	-10.8038
▁alţi	-10.804
▁jurídicos	-10.8041
▁considerado	-10.8045
▁1984	-10.8048
▁4)	-10.805
▁angajamentele	-10.805
ico	-10.8054
sti	-10.8056
▁bovine	-10.8061
▁cehă	-10.8062
▁informat	-10.8062
▁pobres	-10.8065
▁situ	-10.8069
▁localități	-10.8075
▁registru	-10.8079
88	-10.8079
▁temporară	-10.8081
▁serviciului	-10.8084
jo	-10.8091
▁garanţia	-10.8093
▁trecută	-10.8098
▁egalitatea	-10.8103
▁2016	-10.8105
▁preocupa	-10.8111
▁structura	-10.8111
▁man	-10.8112
▁impactului	-10.8114
ber	-10.8114
▁fructe	-10.8115
▁alegerile	-10.8115
▁ta	-10.8119
▁cosa	-10.8125
▁poblaciones	-10.8125
▁electrice	-10.8128
▁cercetării	-10.813
▁10,	-10.8132
▁tomará	-10.8134
▁sancţiuni	-10.8137
▁autorizată	-10.8142
▁incrementar	-10.8143
▁casa	-10.8147
▁envío	-10.8151
▁veterinare	-10.8157
▁albania	-10.8158
ară	-10.8158
▁científica	-10.8159
▁versión	-10.8162
▁desafíos	-10.8162
▁încuraja	-10.8163
▁presentes	-10.8165
▁directă	-10.8166
▁consultivo	-10.8169
▁beneficieze	-10.8169
▁procesos	-10.817
▁contracte	-10.8173
▁defensor	-10.8176
▁resistencia	-10.818
ió	-10.818
▁simplificación	-10.818
▁sprijinirea	-10.8181
▁proveedor	-10.8187
▁energetic	-10.819
▁invertir	-10.8191
▁emite	-10.8194
encia	-10.8196
▁cualquiera	-10.8201
▁depăşească	-10.8202
▁sesiones	-10.8202
▁visión	-10.8202
▁incluyendo	-10.8207
▁efectuado	-10.8208
▁practic	-10.8212
▁aprovizionare	-10.8212
▁aplicado	-10.8215
▁aplicată	-10.8218
▁condiții	-10.8224
▁oricare	-10.8224
▁alde	-10.8226
▁pescuitul	-10.8228
▁pasar	-10.8229
▁prelucrarea	-10.8231
▁existencias	-10.8231
▁incluirán	-10.8231
▁exploatarea	-10.8231
▁introdus	-10.8234
▁desgracia	-10.8234
▁efectua	-10.8236
▁ofertas	-10.8237
dă	-10.8243
▁húngara	-10.8245
▁señal	-10.8248
▁define	-10.825
▁directo	-10.8254
▁termeni	-10.8257
▁victime	-10.8257
▁creşte	-10.8257
▁apar	-10.8263
▁acceder	-10.8268
▁49	-10.8273
▁firmado	-10.8274
▁blanco	-10.8278
▁nimeni	-10.8278
▁creează	-10.8279
▁reciproc	-10.8281
▁reales	-10.8286
▁puerto	-10.8293
▁depune	-10.8298
▁transmis	-10.8298
▁for	-10.83
▁refer	-10.8304
▁alcohol	-10.8306
▁rev	-10.8309
▁elimina	-10.8309
▁contingentes	-10.8312
▁publicará	-10.8313
▁legislaţie	-10.8317
▁8.	-10.8317
▁ventas	-10.8322
(6)	-10.8323
oc	-10.8323
▁amendamentul	-10.8327
▁conducere	-10.8327
▁primeros	-10.8329
▁escuchar	-10.8329
▁consecinţele	-10.833
▁independent	-10.8333
▁resulte	-10.8334
▁prensa	-10.8334
▁maximum	-10.8335
/2002	-10.8335
▁întregul	-10.8339
▁direcţia	-10.834
▁consultativ	-10.8341
▁dificultăţi	-10.8345
ev	-10.8351
▁garantarea	-10.8351
▁acto	-10.8354
tura	-10.8361
▁87	-10.8361
▁últimas	-10.8365
▁detalii	-10.8366
▁struguri	-10.8367
imos	-10.837
▁transmise	-10.837
▁personale	-10.8374
izării	-10.8374
▁apărare	-10.838
ion	-10.8381
▁préstamos	-10.8382
▁bucur	-10.8382
▁asociere	-10.8383
▁combinate	-10.8383
nță	-10.8385
▁enfrenta	-10.8385
▁mării	-10.8386
▁oficialmente	-10.8389
▁opción	-10.8389
▁trece	-10.84
▁ro	-10.8406
▁cercetarea	-10.8407
▁colaborare	-10.8411
▁errores	-10.8416
▁viven	-10.8418
▁boli	-10.842
▁autovehiculelor	-10.8429
▁adaptare	-10.843
▁sustituirán	-10.8432
▁recunoscut	-10.8434
▁directoare	-10.8438
▁metodelor	-10.8439
▁arancel	-10.8441
▁plecare	-10.8442
▁negativ	-10.8444
▁velocidad	-10.8445
je	-10.8449
▁colegi	-10.845
▁liberalización	-10.8457
▁culturales	-10.8466
▁transitorio	-10.8467
▁depende	-10.8469
▁ulterioare	-10.8479
▁fizică	-10.8483
▁dezbaterii	-10.849
▁enviar	-10.8493
▁sujeto	-10.8495
pol	-10.8496
▁mandatul	-10.8496
▁presenten	-10.8497
▁diferită	-10.8497
▁canada	-10.8502
▁mass	-10.8511
tal	-10.8513
▁restricţii	-10.8513
▁aprobare	-10.8516
▁pérdidas	-10.8522
▁presiune	-10.8525
▁copie	-10.8529
▁vehiculele	-10.8529
▁viaţa	-10.8535
▁contratación	-10.8536
▁profit	-10.8537
▁extra	-10.8537
▁ţin	-10.8539
▁subiectul	-10.854
▁libro	-10.854
▁beneficiul	-10.8541
▁greutatea	-10.8542
▁(17)	-10.8548
▁aérea	-10.8552
▁major	-10.8553
▁corecte	-10.8555
▁siguranţei	-10.8558
▁infracción	-10.8558
▁importanța	-10.8558
▁the	-10.8558
▁coreea	-10.8558
▁adus	-10.8559
▁obligatoria	-10.8563
▁legume	-10.8571
▁básicas	-10.8572
▁pasageri	-10.8577
▁admisión	-10.858
▁47	-10.8582
▁comunicate	-10.8583
ant	-10.8583
▁închisă	-10.8583
▁vol	-10.8585
▁producerea	-10.8591
▁crescut	-10.8592
▁terțe	-10.8592
▁voz	-10.8592
▁inmediata	-10.8594
▁erau	-10.8595
▁suplimentar	-10.8598
▁to	-10.8599
▁lleve	-10.8603
▁restituire	-10.8605
▁venituri	-10.8606
▁figurar	-10.8608
▁împiedică	-10.8611
▁tunisia	-10.8615
▁adapta	-10.8616
▁medie	-10.862
▁inteligente	-10.8622
▁susțin	-10.8628
pon	-10.8629
▁vizelor	-10.8631
▁creciente	-10.8631
▁marítimo	-10.8631
▁65	-10.8634
miento	-10.8635
▁acoperă	-10.8637
▁funcţionează	-10.8637
▁înaintează	-10.8641
▁hablado	-10.8641
▁lectura	-10.8649
▁dé	-10.8657
▁cubrir	-10.866
tos	-10.8662
▁ti	-10.8664
să	-10.8666
▁canales	-10.867
▁bord	-10.867
▁accepta	-10.8674
▁parcialmente	-10.8674
▁medicamente	-10.8675
▁finalidad	-10.8675
▁2001.	-10.8679
▁expresado	-10.8679
medioambientales	-10.868
▁susţinerea	-10.8681
par	-10.8682
▁balcanes	-10.8683
▁importados	-10.8686
▁tasas	-10.8688
▁vivos	-10.8692
▁conversión	-10.8692
▁considerarán	-10.8695
▁perspectivas	-10.8697
▁recurs	-10.8698
▁vreau	-10.8698
▁încrederea	-10.8702
ero	-10.8704
▁arquitectura	-10.8706
▁televiziune	-10.8706
▁apropierea	-10.8709
▁structuri	-10.8713
▁autorizada	-10.8715
▁lote	-10.8716
▁implicarea	-10.8722
▁pregătirea	-10.8728
▁indicados	-10.8728
▁vine	-10.8729
▁folosesc	-10.8729
▁rurală	-10.8731
▁bruto	-10.8734
▁llamamiento	-10.8735
▁candidatos	-10.8736
▁consideramos	-10.8738
▁poluării	-10.8741
▁echipamentele	-10.8743
▁consumatorului	-10.8743
izate	-10.8743
▁debo	-10.8743
▁globalizare	-10.8744
▁considerable	-10.8746
▁exportate	-10.8751
▁iva	-10.8755
▁discutat	-10.8757
aciones	-10.8763
▁túnez	-10.8764
▁planului	-10.877
▁olvidar	-10.8772
▁1983	-10.8775
▁futuras	-10.8775
▁agradecimiento	-10.8775
▁asociate	-10.8779
▁déficit	-10.8781
▁sprijinim	-10.8783
▁2913/92	-10.8787
▁întregime	-10.8787
ces	-10.8793
-20	-10.8795
▁cetățeni	-10.8795
▁colegilor	-10.8797
▁empleados	-10.8798
▁joacă	-10.8799
▁frontex	-10.8799
▁cumplido	-10.8799
▁încălcare	-10.8801
▁pierdut	-10.8807
▁suferă	-10.881
▁verdadera	-10.8814
▁combate	-10.8815
▁impun	-10.8818
▁previamente	-10.8819
▁ouă	-10.8826
▁oportun	-10.8826
▁definidos	-10.8827
▁vinculante	-10.8828
▁depăşi	-10.8828
▁significativo	-10.8828
▁acelor	-10.8832
▁debatiendo	-10.8834
▁regla	-10.8834
▁mări	-10.8835
▁aflăm	-10.8836
tice	-10.8838
ol	-10.8839
▁suiza	-10.8839
tic	-10.8844
▁etapă	-10.8845
▁constitui	-10.8847
▁seguirá	-10.8855
▁deşeurilor	-10.8856
▁cereale	-10.8856
▁contractante	-10.886
▁discuta	-10.8865
▁volumul	-10.8871
▁părere	-10.8871
▁titluri	-10.8872
nța	-10.8875
▁autorizadas	-10.8877
▁utilizan	-10.888
▁corrupción	-10.888
▁constante	-10.8887
▁mijloc	-10.8893
▁quizás	-10.8899
▁asta	-10.8904
▁inicio	-10.8904
▁oriente	-10.8904
▁viaje	-10.891
▁relaţiilor	-10.8911
▁islandia	-10.8915
▁aplicabilă	-10.8917
▁conflict	-10.8925
▁militare	-10.8936
▁preţuri	-10.8943
▁pusă	-10.8948
▁știm	-10.8952
▁potenţial	-10.8956
▁fijan	-10.8957
cer	-10.8959
▁plătite	-10.8966
▁emisii	-10.8967
▁verificare	-10.897
torii	-10.8976
▁corespunde	-10.8976
▁juego	-10.8981
▁strategic	-10.8987
▁primele	-10.8989
rul	-10.8989
▁movimiento	-10.8992
▁măcar	-10.9001
▁aceștia	-10.9001
▁ideas	-10.9001
cent	-10.9004
▁abierto	-10.9004
▁integrare	-10.9008
▁garantează	-10.901
▁vinos	-10.901
▁ventajas	-10.9013
ieron	-10.9013
ns	-10.9014
▁pachetul	-10.9017
▁imposición	-10.9022
ho	-10.9025
▁tva	-10.9031
▁înţeleg	-10.9033
▁devreme	-10.9033
▁companiilor	-10.9035
▁absolutamente	-10.9035
▁persoanei	-10.9035
▁comercializate	-10.9039
▁recurrir	-10.9043
▁sfera	-10.9045
▁efectuare	-10.905
▁exprimare	-10.9052
▁declaraţiile	-10.9054
▁raíz	-10.9057
/93	-10.9059
▁inovare	-10.906
▁sprijină	-10.9062
▁dus	-10.9062
cr	-10.9065
▁mutua	-10.9067
rilor	-10.9069
▁alimentele	-10.9069
▁părți	-10.9072
▁serio	-10.9074
▁consens	-10.9074
ka	-10.9075
▁ecr	-10.9077
ț	-10.9082
▁iniciar	-10.9083
su	-10.9093
▁amparo	-10.9093
▁físicas	-10.9095
▁registrados	-10.9095
▁negative	-10.9097
▁deschise	-10.9098
▁libertăţii	-10.91
▁organismului	-10.9103
▁lleven	-10.9105
▁pescăreşti	-10.9105
▁respaldo	-10.9105
▁comerţ	-10.9106
tregii	-10.9116
▁plantea	-10.9119
▁categoriile	-10.912
▁representación	-10.912
▁încheia	-10.9121
▁reuniunea	-10.9128
▁transparenţă	-10.9129
▁negociere	-10.9132
he	-10.9135
▁personalului	-10.9135
ţ	-10.9139
▁realizează	-10.9141
▁¡	-10.9142
tică	-10.9144
▁148	-10.9144
86	-10.9145
▁sometido	-10.9148
▁plantear	-10.9149
▁tomarse	-10.9151
▁plătit	-10.9152
▁sprijine	-10.9152
▁indemnización	-10.9153
▁planteamiento	-10.9153
▁excepcionales	-10.9156
▁conturile	-10.9157
▁reformă	-10.9158
▁respectivul	-10.916
▁mucha	-10.916
▁orientare	-10.916
▁car	-10.9162
▁zonelor	-10.9163
▁peligrosos	-10.9165
▁legislația	-10.9165
▁determine	-10.9167
▁restul	-10.9167
▁cadena	-10.9172
ut	-10.9173
▁esperanza	-10.9173
▁definirea	-10.9173
68	-10.9177
▁populaţia	-10.9177
▁frontieră	-10.9177
76	-10.9179
60	-10.918
▁băncile	-10.9185
iere	-10.9186
can	-10.9188
▁subvenciones	-10.9189
▁efectúe	-10.919
▁estonia	-10.9191
▁conforma	-10.9191
▁cerut	-10.9193
▁apropiadas	-10.9201
▁agriculturii	-10.9201
▁scăzut	-10.9202
▁fortalecer	-10.9208
▁ong	-10.921
▁deschisă	-10.9211
▁indicat	-10.9213
ará	-10.9216
▁rápido	-10.9221
▁eficace	-10.9221
▁pasagerilor	-10.9223
▁ru	-10.9232
▁geográficas	-10.9236
▁balance	-10.9238
▁transfronterizo	-10.9238
▁definitiva	-10.9238
▁1982	-10.9239
nda	-10.9248
▁finanzas	-10.925
▁comparación	-10.925
▁definido	-10.9259
▁contribuyentes	-10.9268
▁locurilor	-10.9275
▁instrumentelor	-10.9278
▁compuestos	-10.9284
▁recomandări	-10.9285
▁na	-10.9285
▁adresată	-10.9295
▁reto	-10.9298
▁audit	-10.9301
▁operatorii	-10.9307
▁expedidos	-10.9308
▁negocios	-10.9309
▁autorizaţiei	-10.9309
▁navegación	-10.9311
▁mejoras	-10.9311
▁peticiones	-10.9311
▁terorismului	-10.9312
▁conocer	-10.9314
▁ajungă	-10.9315
▁reducido	-10.9318
▁notifică	-10.932
▁alternativos	-10.932
▁tamaño	-10.9323
▁comprobación	-10.9323
tan	-10.933
▁metodă	-10.9335
▁umanitar	-10.9337
▁alianza	-10.934
▁supusă	-10.9343
▁textos	-10.9346
media	-10.9347
▁bi	-10.9349
▁determinată	-10.9357
▁causas	-10.9362
▁azi	-10.9366
▁eventuale	-10.9369
▁bo	-10.9369
▁legislativă	-10.9371
oase	-10.9372
▁transmiterea	-10.9375
▁exploatare	-10.9376
▁habido	-10.9384
▁2003,	-10.9385
▁bunurile	-10.9386
▁chestiunea	-10.9387
▁contribuţie	-10.9392
▁cláusula	-10.9392
▁espíritu	-10.9396
▁51	-10.9399
▁redresare	-10.94
▁marcas	-10.9404
▁puternice	-10.9407
▁nivelului	-10.9407
▁ayer	-10.941
land	-10.9413
▁dezvoltate	-10.9417
▁doamna	-10.9421
▁ulterioară	-10.9421
▁riscului	-10.9422
▁satisfacer	-10.9422
▁2000.	-10.9424
▁correctamente	-10.9426
▁telecomunica	-10.9427
▁obama	-10.9434
▁consultare	-10.9434
▁creeze	-10.9434
▁reprezentat	-10.9435
▁calendario	-10.9435
sión	-10.944
▁cara	-10.9442
▁producir	-10.9443
cl	-10.9448
▁studii	-10.9449
▁preţului	-10.9456
84	-10.9459
▁rău	-10.946
▁ultim	-10.9463
▁conformitatea	-10.9466
▁adresez	-10.9469
▁mutuo	-10.9471
▁disponga	-10.9472
▁irregularidades	-10.9472
mp	-10.9474
▁combinată	-10.9474
▁combatere	-10.9478
▁tierra	-10.9479
▁transporturilor	-10.9492
▁dialogul	-10.9493
▁cameră	-10.9496
▁aviación	-10.9496
▁adoptó	-10.9496
▁rezolva	-10.9496
▁buna	-10.9499
▁practica	-10.9501
▁planurile	-10.9502
▁contabilidad	-10.9502
/2003	-10.9503
▁participare	-10.9506
▁sostenibilidad	-10.9508
▁distancia	-10.9508
▁llamar	-10.9512
▁proporciona	-10.9515
▁convenios	-10.9517
▁ilegale	-10.9518
▁înconjurător	-10.952
▁primite	-10.9521
▁reforme	-10.9527
▁accidentes	-10.9531
bilidad	-10.9533
▁utilizeze	-10.9533
▁planuri	-10.9535
▁cap	-10.954
▁discriminare	-10.9541
▁española	-10.9541
▁pasăre	-10.9546
▁solicitantes	-10.9547
▁demonstra	-10.9553
▁xxi	-10.9554
▁actelor	-10.9556
▁afectat	-10.9558
▁(18)	-10.956
▁alternativa	-10.9562
ándose	-10.9562
▁atenția	-10.9562
▁acte	-10.9568
▁repercusiones	-10.9571
▁încercăm	-10.9571
▁autorizarea	-10.9571
▁asume	-10.9571
▁probablemente	-10.9572
▁objetos	-10.9572
▁ieri	-10.9575
▁statistică	-10.9577
▁extremadamente	-10.9583
▁―	-10.9583
▁totale	-10.9591
▁rep	-10.9592
▁continuăm	-10.9594
▁acordăm	-10.9595
▁bélgica	-10.9596
▁despacho	-10.9596
▁pakistán	-10.9596
▁estrategias	-10.9598
▁democraţiei	-10.9598
▁menționat	-10.9599
▁originea	-10.9599
▁reușit	-10.96
▁apoyado	-10.9602
▁indice	-10.9602
▁gases	-10.9607
▁recientes	-10.9607
▁america	-10.9608
▁eliberează	-10.9608
▁89/10	-10.9608
72	-10.9609
▁construir	-10.9613
▁realizarse	-10.9615
▁disciplina	-10.9617
▁interna	-10.9619
▁atrag	-10.962
▁movilización	-10.9621
ită	-10.9628
▁justifică	-10.9632
cas	-10.9633
▁examinare	-10.9634
▁trimite	-10.9634
▁telecomunicaţii	-10.9641
▁concurenţa	-10.9646
▁sujetas	-10.9646
▁votos	-10.9647
▁ordine	-10.9655
▁estratégica	-10.9655
▁instituțiile	-10.9656
».	-10.9657
▁pasivo	-10.9659
▁dijo	-10.9659
▁clasificate	-10.9659
▁insta	-10.9661
▁tradicionales	-10.9662
▁parlamentaria	-10.9664
/97	-10.9667
▁observa	-10.9669
▁sectoarele	-10.9675
▁singurul	-10.9676
▁industrie	-10.968
▁lungul	-10.9681
▁billetes	-10.9682
▁spunem	-10.9684
▁invit	-10.9684
▁ocupării	-10.9685
▁beneficii	-10.9688
▁vidas	-10.9692
▁teritoriu	-10.9694
▁2008.	-10.9695
▁unităţile	-10.9696
▁sarcini	-10.9696
▁egipt	-10.9701
▁propriu	-10.9703
50	-10.9704
▁permiten	-10.9705
▁producătorul	-10.9706
▁schimburilor	-10.9707
▁siguranța	-10.9709
▁sustitución	-10.971
▁merece	-10.9711
▁buscar	-10.9714
25	-10.9716
▁registros	-10.9719
▁bueno	-10.9719
▁res	-10.9719
▁conservarea	-10.9722
▁oportunitate	-10.9728
▁adquirida	-10.9731
96	-10.9732
▁națională	-10.9733
▁orientaciones	-10.9735
▁producătoare	-10.9735
▁verificación	-10.9737
▁stare	-10.9737
▁întreprinse	-10.9739
▁cuba	-10.9746
▁angajat	-10.9747
▁sp	-10.9754
▁echivalent	-10.9757
▁recomandările	-10.9761
▁poporul	-10.9761
▁modificados	-10.9762
▁1971	-10.9765
▁respuestas	-10.9765
▁soiuri	-10.9771
▁rezerve	-10.9773
▁señalado	-10.9773
▁primească	-10.9774
▁ga	-10.9775
▁feroviar	-10.9776
iei	-10.9776
▁comisiones	-10.9777
▁împiedica	-10.9777
▁mandatului	-10.978
▁sede	-10.978
▁continuarea	-10.978
▁obra	-10.9782
▁victimelor	-10.9784
▁supus	-10.9785
▁încadrează	-10.9786
▁aire	-10.9793
▁experţi	-10.9798
▁licitaţie	-10.9799
gue	-10.98
▁condus	-10.9801
▁greutate	-10.9805
▁nato	-10.9808
▁54	-10.9808
▁establezcan	-10.9813
▁tur	-10.9813
▁completează	-10.9815
▁emitirá	-10.9815
▁demócratas	-10.9816
▁lungă	-10.9817
▁figuren	-10.9819
▁fijará	-10.9819
▁dificile	-10.9822
▁estrictas	-10.9823
▁schimburile	-10.9824
lin	-10.9824
▁antidumping	-10.9825
▁presta	-10.9827
▁mu	-10.9828
▁clădiri	-10.9829
▁simplificarea	-10.9829
▁bases	-10.9829
▁88	-10.9839
▁poporului	-10.9839
▁solicitantul	-10.9841
▁continente	-10.9849
▁digital	-10.9849
▁rezoluția	-10.985
▁obtención	-10.985
▁pozitivă	-10.9852
▁indicadores	-10.9852
▁rurales	-10.9857
▁domicilio	-10.9863
▁prevenire	-10.9867
▁egale	-10.9868
▁costul	-10.9868
▁prealabilă	-10.987
▁concentrat	-10.9878
▁respectiva	-10.9879
▁hotărât	-10.9879
▁votului	-10.9881
▁limitado	-10.9884
93	-10.9885
▁valabile	-10.9895
▁comprendido	-10.9899
▁reflectă	-10.9899
euratom	-10.9901
▁reembolso	-10.9902
▁interpretación	-10.9902
▁deplină	-10.9903
▁convertirse	-10.9905
▁liquidación	-10.9915
▁notificare	-10.9916
vin	-10.9918
▁apare	-10.9922
▁destinatario	-10.9925
▁ahí	-10.9928
▁geografică	-10.9931
▁toții	-10.9932
▁vulnerables	-10.9933
▁fiscală	-10.9937
▁otan	-10.9937
▁integrado	-10.9946
▁soiurilor	-10.9951
▁infrastructurii	-10.9952
▁mitad	-10.9954
▁determinate	-10.9958
▁efectivă	-10.996
▁propriul	-10.9961
▁obliga	-10.9964
ya	-10.9965
iste	-10.9966
▁designación	-10.9967
▁violación	-10.9968
der	-10.9968
▁asegurarnos	-10.997
▁considerabil	-10.9972
vot	-10.9974
▁următoarelor	-10.9978
▁numerosas	-10.998
▁proponer	-10.9986
▁susține	-10.9986
▁excelentă	-10.9988
▁plantelor	-10.9989
▁conţinutului	-10.9989
ud	-10.9991
▁condițiile	-10.9995
gre	-10.9996
▁evaluării	-10.9996
79	-10.9999
▁dau	-11
hi	-11.0001
ităţi	-11.0002
▁organiza	-11.0003
idas	-11.0004
den	-11.0005
▁subsidiariedad	-11.0006
▁parlamentare	-11.0008
▁facultad	-11.001
ios	-11.001
▁determinarán	-11.0014
▁exp	-11.0015
▁reducă	-11.0016
▁regenerabile	-11.0019
▁apoya	-11.0027
▁întreprinderea	-11.0028
▁precisa	-11.0029
▁fitosanitarios	-11.0031
▁acuicultura	-11.0032
▁sufrido	-11.0032
▁2002.	-11.0044
▁suedia	-11.0046
▁promoveze	-11.0046
▁obviamente	-11.0046
▁laborales	-11.0056
▁dan	-11.0056
▁concretos	-11.0057
rio	-11.0059
▁definit	-11.0061
▁corespund	-11.0062
ura	-11.0065
▁ejemplar	-11.0068
▁fabricarea	-11.0068
▁suferit	-11.0069
▁concedida	-11.007
▁format	-11.0071
▁televisión	-11.0072
▁pedido	-11.0072
▁legi	-11.0072
▁iniţiative	-11.0073
ire	-11.0073
▁líderes	-11.0074
▁caracterul	-11.0075
▁etapa	-11.0082
aj	-11.0084
nţa	-11.0086
▁proporţional	-11.0089
▁activas	-11.0095
▁encima	-11.0098
▁test	-11.01
ncia	-11.0105
▁judiciales	-11.0106
▁priorităţile	-11.0107
▁imposible	-11.0112
▁brasil	-11.0112
▁campañas	-11.0118
rnos	-11.0124
▁coordinar	-11.0125
▁convins	-11.0131
ing	-11.0131
▁handicap	-11.0131
▁definită	-11.0134
17	-11.0135
▁legislativa	-11.0135
▁exercită	-11.0137
▁înapoi	-11.0138
▁precizează	-11.0138
▁trăiesc	-11.0138
▁australia	-11.014
▁decidirá	-11.0144
▁formal	-11.0148
▁arancelaria	-11.0149
▁afectan	-11.0156
▁investiţiile	-11.0156
▁pueblos	-11.0159
▁declaraţiei	-11.0161
▁frontera	-11.0162
▁votez	-11.0165
▁cost	-11.0165
▁sanidad	-11.0166
▁podremos	-11.0178
▁plăţile	-11.018
▁instituie	-11.0184
▁autorizează	-11.0192
▁victimele	-11.0193
▁certificare	-11.0193
▁conjuntamente	-11.0195
▁accepte	-11.0196
▁retragerea	-11.0203
▁lumina	-11.0207
▁vrem	-11.0217
▁simplă	-11.0222
▁indicará	-11.0224
▁aplicando	-11.0229
▁escuchado	-11.0234
▁cerute	-11.0234
▁legislativas	-11.0236
▁membră	-11.0245
▁indican	-11.0247
▁autorizaţii	-11.0248
▁fundamentală	-11.025
▁educaţie	-11.0255
▁respaldar	-11.0256
▁forţă	-11.0259
▁ri	-11.0259
▁siquiera	-11.0259
▁siga	-11.026
▁dejado	-11.0267
▁cuota	-11.027
▁mobiliare	-11.0272
▁vorbesc	-11.0272
▁ulei	-11.0272
▁cultură	-11.0273
▁nombres	-11.0276
▁dada	-11.0283
▁acceptate	-11.0288
▁haiti	-11.029
▁excepţionale	-11.029
▁unitatea	-11.0291
▁primului	-11.0292
op	-11.0292
▁fijadas	-11.0295
▁soluție	-11.0299
▁apărarea	-11.0299
▁garantiza	-11.03
▁produzca	-11.0301
▁verdaderamente	-11.0301
▁precisar	-11.0302
▁efectelor	-11.0303
cheie	-11.0303
▁diferit	-11.0305
▁subrayar	-11.0307
aş	-11.0309
▁pienso	-11.0312
▁insulele	-11.0315
▁genetic	-11.0316
▁gestionar	-11.0319
▁valabilitate	-11.0321
▁mercancía	-11.0324
▁vecindad	-11.0326
▁informado	-11.033
▁pondrán	-11.0332
▁extinde	-11.0338
▁cuprinzătoare	-11.0339
▁eficienţei	-11.034
▁evenimente	-11.034
▁positivos	-11.0342
▁depună	-11.0342
▁definiţii	-11.0347
▁tomarán	-11.0347
▁zilei	-11.0349
▁reconocido	-11.0351
▁ridică	-11.0354
▁recomandă	-11.0356
▁inf	-11.0357
▁cifre	-11.0358
ităţile	-11.036
▁acţionează	-11.0366
▁patrimonio	-11.0366
▁înţeles	-11.0366
▁provocările	-11.0374
▁complete	-11.0375
▁fmi	-11.0378
▁concederse	-11.0379
▁îndeaproape	-11.038
▁reziduurilor	-11.038
▁reţele	-11.0382
▁sporită	-11.0385
▁întocmit	-11.0385
05	-11.0386
▁sanitare	-11.0391
▁armas	-11.0393
▁ganado	-11.0393
▁1782/2003	-11.0393
▁2454/93	-11.0393
▁folosească	-11.0393
▁credibilidad	-11.0394
▁ofertă	-11.0394
/4	-11.0394
▁hizo	-11.0394
▁militares	-11.0394
▁cuprindă	-11.0399
▁regret	-11.0399
▁col	-11.0404
▁implementarea	-11.0405
▁siete	-11.0408
▁intrat	-11.0411
▁răspundă	-11.0414
83	-11.0415
▁etichetare	-11.0417
▁evenimentele	-11.042
▁eran	-11.0428
▁mecanisme	-11.0428
▁color	-11.0429
ger	-11.0429
▁acompañado	-11.0433
▁afganistán	-11.0434
▁diferenţa	-11.0434
▁orientul	-11.0435
▁calificación	-11.0435
▁registrado	-11.0435
▁repet	-11.0435
▁realizeze	-11.0436
▁şedinţei	-11.0437
▁publicate	-11.0438
▁traficul	-11.0439
▁practice	-11.0439
▁pertenecientes	-11.044
▁terminar	-11.0441
▁transmitir	-11.0441
▁gaz	-11.0442
▁normalmente	-11.0443
til	-11.0444
▁umbral	-11.0444
▁definidas	-11.0445
sp	-11.0446
▁perspectivă	-11.0448
▁garanticen	-11.045
▁partidul	-11.0451
▁planteado	-11.0452
▁legii	-11.0452
▁finanțarea	-11.0454
▁comunicar	-11.0456
▁obiect	-11.0459
▁capitol	-11.0459
ește	-11.046
stra	-11.0461
▁(19)	-11.0464
ed	-11.0465
est	-11.0467
▁sustituir	-11.0468
▁băncilor	-11.0469
▁proprietate	-11.047
▁livrare	-11.047
(5),	-11.0471
▁industrias	-11.0472
▁67/548/	-11.0475
▁provizorii	-11.0475
▁web	-11.0477
▁utilice	-11.0479
▁alegerea	-11.048
▁pan	-11.048
▁deloc	-11.0483
▁trai	-11.0485
▁următorii	-11.0486
▁atins	-11.0487
▁modifice	-11.0489
▁comportamiento	-11.0489
▁protegidas	-11.0492
▁ajutoarele	-11.0494
▁chimice	-11.0495
▁proporción	-11.0503
▁suprafaţă	-11.0503
▁dará	-11.0504
▁cría	-11.0505
▁salir	-11.0505
▁ciudades	-11.0506
14	-11.0506
▁titularul	-11.0508
▁libros	-11.0511
▁supresión	-11.0517
▁spaţiul	-11.0518
▁acţiunea	-11.052
▁depăşesc	-11.0531
cos	-11.0541
▁rating	-11.0544
▁lipsă	-11.0544
▁elegir	-11.0545
▁hijos	-11.0551
▁termenele	-11.0551
▁136/66	-11.0553
▁definen	-11.0558
▁dezvolta	-11.0559
bar	-11.0563
▁vecinătate	-11.0567
▁institucional	-11.0568
rios	-11.0571
▁dincolo	-11.0572
▁aproximadamente	-11.0572
▁călători	-11.0572
▁direcţie	-11.0573
▁consciente	-11.0585
▁laboratorio	-11.0585
▁doamne	-11.059
▁termenului	-11.0591
▁angajamente	-11.0591
▁întreprinderii	-11.0597
▁retirar	-11.0598
▁pesquero	-11.0598
▁provizoriu	-11.06
▁hablamos	-11.0602
able	-11.0603
▁prelucrate	-11.0606
▁menţionează	-11.0614
▁forestales	-11.0616
▁and	-11.0618
▁velar	-11.0619
▁teritoriului	-11.0622
▁jur	-11.0625
gan	-11.0627
▁convertido	-11.0628
▁separado	-11.0633
▁séptimo	-11.0642
▁provincia	-11.0642
▁situații	-11.0643
▁1974	-11.0644
▁entender	-11.0648
77	-11.0651
▁analizar	-11.0651
▁ix	-11.0659
▁explicar	-11.0659
▁resultantes	-11.0662
▁familie	-11.0666
▁llevará	-11.0668
▁factura	-11.0669
▁arroz	-11.067
▁plaguicidas	-11.067
▁esențială	-11.067
▁amendament	-11.0671
▁ajusten	-11.0673
▁certificadas	-11.0676
▁însoţită	-11.0677
ones	-11.0678
▁modalitate	-11.0679
▁inovatoare	-11.0683
▁creării	-11.0684
▁justifica	-11.0686
sec	-11.0687
▁150	-11.0688
▁quién	-11.0689
▁ocupare	-11.0693
▁obligados	-11.0694
▁tranzitorii	-11.0698
▁tariful	-11.0698
▁genéticamente	-11.0698
▁realice	-11.0702
▁separate	-11.0705
▁claras	-11.0709
▁cobertura	-11.0712
▁vicepresidente	-11.0712
▁yemen	-11.0712
▁limitează	-11.0712
ntă	-11.0716
vers	-11.0716
abil	-11.0718
▁urgent	-11.0731
▁transformados	-11.0733
▁manos	-11.0736
▁introducerii	-11.0743
▁realizării	-11.0745
▁încântat	-11.0746
▁vorbi	-11.075
ke	-11.0754
▁canal	-11.0757
fu	-11.0758
▁interzicerea	-11.0764
if	-11.0765
▁baronesa	-11.0768
▁designado	-11.0768
▁haití	-11.0768
rfeccionamiento	-11.0771
▁explica	-11.0774
▁poartă	-11.0782
▁bazeze	-11.0782
▁vigésimo	-11.0783
▁primesc	-11.0783
▁podríamos	-11.0784
▁sometidas	-11.0786
▁resultar	-11.079
▁programación	-11.0798
cor	-11.0799
ré	-11.08
▁evaluări	-11.08
▁regulat	-11.0804
▁importador	-11.0808
▁pabellón	-11.081
▁menite	-11.0815
▁encuentren	-11.082
▁mobilizarea	-11.0821
▁salvaguardia	-11.0825
pu	-11.0834
▁eforturilor	-11.0834
▁maritimă	-11.0837
▁ho	-11.0837
▁251	-11.0838
oasă	-11.0839
▁cierra	-11.0839
▁dinamarca	-11.0839
81	-11.0839
▁posiciones	-11.0841
▁evite	-11.0842
▁democraţie	-11.085
▁derivate	-11.0851
▁ponga	-11.0853
cen	-11.0856
ables	-11.0856
▁excelent	-11.0862
▁adecuadamente	-11.0862
▁absoluto	-11.0863
▁ră	-11.0867
▁implicat	-11.087
▁contribuit	-11.0876
▁ingredientes	-11.0878
▁abordări	-11.0879
▁difíciles	-11.0881
idos	-11.0881
▁actuación	-11.0882
▁presentó	-11.0882
▁tabelul	-11.0884
▁ilegales	-11.0884
▁82	-11.0892
▁idee	-11.0892
▁sanitarias	-11.0894
▁consecución	-11.0896
▁carbón	-11.0896
03	-11.0898
▁rapidez	-11.0898
▁bazat	-11.0902
▁provocare	-11.0904
▁juicio	-11.0906
▁aras	-11.0907
▁contabile	-11.0908
▁2092/91	-11.091
▁descripción	-11.091
▁chipre	-11.0911
▁verts	-11.0911
▁documentación	-11.0913
▁regulamente	-11.0915
▁personalmente	-11.0915
▁reduceri	-11.0918
▁claros	-11.0919
▁occidentales	-11.092
pac	-11.0921
▁favorable	-11.0924
▁72/46	-11.0925
▁ştiţi	-11.0926
▁normalización	-11.0926
▁evalua	-11.0931
az	-11.0931
▁1973	-11.0931
▁realizată	-11.0936
▁contrar	-11.0938
irea	-11.0938
▁partener	-11.0939
▁deficiencias	-11.0942
▁creșterii	-11.0944
▁operador	-11.0952
▁perdido	-11.0954
▁condena	-11.0957
▁agradecer	-11.0961
▁modelului	-11.0965
▁ejecutivo	-11.0968
▁plătească	-11.0968
▁sarcină	-11.0968
&	-11.0969
▁tinerii	-11.097
▁nume	-11.0971
▁hu	-11.0972
▁utilizada	-11.0973
▁monetară	-11.0974
▁comprobado	-11.0977
▁afrontar	-11.098
▁încălcarea	-11.098
▁liderazgo	-11.0982
▁opciones	-11.0982
▁aşteptăm	-11.0983
▁convenit	-11.0985
remos	-11.0989
▁actitud	-11.0993
▁piese	-11.0994
▁lamento	-11.0996
▁alia	-11.0997
▁anterioară	-11.0997
▁numerosos	-11.0997
▁ajustarse	-11.0999
▁confirmă	-11.1001
▁stabilirii	-11.1002
▁mor	-11.1002
▁2004.	-11.1006
▁sujeta	-11.1011
▁sta	-11.1011
▁orador	-11.1012
▁omi	-11.1015
▁iniţială	-11.1023
▁viață	-11.1026
▁quedar	-11.1028
▁occidental	-11.1029
▁cauzate	-11.1033
▁cosecha	-11.1033
▁concede	-11.1034
▁fa	-11.1038
▁sabe	-11.104
▁adquisición	-11.104
▁fomento	-11.104
▁mijlociu	-11.104
for	-11.1042
▁tineri	-11.1043
▁be	-11.1043
▁privesc	-11.1055
▁preparar	-11.1056
▁comercializării	-11.1056
▁decurg	-11.1056
▁lejos	-11.1057
▁electoral	-11.1057
▁declarado	-11.1058
ină	-11.106
▁inacceptabil	-11.1061
▁cargas	-11.1061
▁abrir	-11.1062
▁filme	-11.1066
▁şedinţe	-11.1067
▁sarcinile	-11.1069
▁lucrăm	-11.1069
▁temperatura	-11.1069
izată	-11.107
▁încerca	-11.1077
▁400	-11.1078
▁competenţele	-11.108
ín	-11.1082
▁echipamentelor	-11.1083
▁sigure	-11.1083
▁refiero	-11.1084
▁federal	-11.1084
▁emitido	-11.1084
▁contribuye	-11.1085
▁observación	-11.1085
▁estándares	-11.1086
▁înscrise	-11.1088
▁articole	-11.1096
▁moartea	-11.1097
▁infrastructură	-11.1098
port	-11.1099
▁exactamente	-11.11
▁bilateral	-11.1101
▁fuere	-11.1103
vis	-11.1103
▁instrumentul	-11.111
▁aşteaptă	-11.1113
▁cota	-11.1115
▁vreme	-11.1116
▁2013.	-11.1116
▁complementarias	-11.1121
▁procederá	-11.1124
▁señala	-11.1124
▁executiv	-11.1124
▁indicată	-11.1126
7,	-11.1128
abile	-11.1131
nc	-11.1131
▁prealabil	-11.1134
ducerii	-11.1134
▁liga	-11.1136
▁administrativo	-11.1137
▁provisionales	-11.1138
▁completar	-11.1139
▁raportoare	-11.1141
▁acervo	-11.1142
▁pedimos	-11.1142
▁fața	-11.1142
▁destinată	-11.1143
▁contempla	-11.1147
▁globales	-11.115
▁1966	-11.1152
▁revin	-11.1152
▁privată	-11.1157
▁instituţia	-11.1157
▁intelectual	-11.1157
▁îndată	-11.1158
▁dosar	-11.1158
rt	-11.1158
▁progresele	-11.1159
▁consolidación	-11.1159
▁servir	-11.1159
▁exportadores	-11.1164
▁determinat	-11.1166
mon	-11.1167
▁modului	-11.117
▁religioase	-11.1172
▁dependencia	-11.1172
▁generar	-11.1173
▁folosită	-11.1174
(2)	-11.1176
▁intre	-11.1181
▁comision	-11.1184
▁distribuţie	-11.1184
▁contribuciones	-11.1186
▁división	-11.1186
▁lectură	-11.1186
▁mereu	-11.1187
▁localización	-11.1188
▁informarea	-11.1189
▁lot	-11.1189
97	-11.1191
▁sello	-11.1194
▁oferim	-11.1199
▁agradezco	-11.1201
▁electrónico	-11.1202
▁fases	-11.1203
▁rezoluţiei	-11.1208
▁navei	-11.1209
▁acceptat	-11.1213
▁extindere	-11.1215
▁uneia	-11.1216
▁eslovaquia	-11.1216
▁capturas	-11.1227
▁teză	-11.1231
▁franco	-11.1232
▁verdadero	-11.1232
▁formar	-11.1235
06	-11.1238
▁constituir	-11.1238
▁denegar	-11.1242
▁suprafaţa	-11.1246
ita	-11.1246
art	-11.1247
▁veniturile	-11.1248
▁însoţit	-11.1249
▁43,	-11.125
▁produc	-11.1253
▁micro	-11.1254
sis	-11.1259
▁río	-11.1261
▁licenţele	-11.1263
▁utilizatorilor	-11.1266
▁prezente	-11.1267
▁curent	-11.127
▁confirma	-11.1272
▁citadas	-11.1272
▁scutire	-11.1273
▁1254/1999	-11.1275
▁cuantía	-11.1275
nta	-11.128
▁modificarse	-11.128
▁iran	-11.1285
▁electrónicos	-11.129
▁transparenţa	-11.129
▁tuvo	-11.129
▁gândim	-11.1291
18	-11.1292
▁2003.	-11.1294
▁dovezi	-11.1296
▁constant	-11.1298
▁prevedea	-11.1299
▁puertos	-11.13
▁liniile	-11.1301
ã	-11.1304
▁contractul	-11.1304
▁agrupación	-11.1305
▁aprobó	-11.1305
▁cometido	-11.1306
▁brazilia	-11.1306
▁alocarea	-11.1321
ua	-11.1322
▁57	-11.1322
▁kilogramos	-11.1325
▁informeze	-11.1325
▁estudiar	-11.1328
▁aclarar	-11.1332
▁apei	-11.1333
▁consolidate	-11.1335
ner	-11.1337
▁periodic	-11.1342
04	-11.1343
▁jo	-11.1347
▁identificate	-11.1347
▁52	-11.135
▁devolución	-11.135
▁tenía	-11.1352
▁documentului	-11.1355
âr	-11.136
▁centre	-11.1362
▁studiu	-11.1362
▁almacén	-11.1365
▁77/9	-11.1368
gra	-11.1377
▁spori	-11.1377
▁negociar	-11.1377
▁inscripción	-11.138
\	-11.138
▁asistenţei	-11.1381
▁apropiada	-11.1382
▁capacidades	-11.1386
▁86	-11.1386
▁permiteți	-11.1387
▁teme	-11.1393
▁etichetă	-11.1394
▁rea	-11.1395
▁calendaristic	-11.1396
▁transitorias	-11.1401
▁ocho	-11.1401
▁merge	-11.1404
▁rezolvarea	-11.1405
▁cultivos	-11.1406
▁campania	-11.141
▁dăunătoare	-11.141
▁sacrificio	-11.1411
▁colegul	-11.1415
▁găsim	-11.1416
▁registrul	-11.1417
▁întâmpla	-11.1431
▁elabora	-11.1431
▁integrată	-11.1433
ko	-11.1433
▁comisarul	-11.1439
▁sărace	-11.1441
▁hacemos	-11.1443
▁economiile	-11.1444
▁stă	-11.1449
ască	-11.1451
id	-11.1451
▁integrării	-11.1456
▁celebrados	-11.1456
▁executarea	-11.1459
ori	-11.146
▁comunicaţii	-11.1465
▁serioase	-11.1471
▁afectar	-11.1471
▁designados	-11.1472
▁desea	-11.1473
▁porcine	-11.1477
▁presentarán	-11.1486
▁desastre	-11.1487
▁liberación	-11.149
▁finalizar	-11.1499
▁reglementată	-11.1499
▁13,	-11.15
▁acţioneze	-11.1501
▁anchetă	-11.1501
▁madera	-11.1501
▁tratamentul	-11.1502
▁batalla	-11.1502
▁basarse	-11.1503
▁instituții	-11.1512
▁numit	-11.1514
▁abierta	-11.1515
▁pasada	-11.1519
▁feoga	-11.1522
▁películas	-11.1522
▁53	-11.1523
▁liberal	-11.1531
▁întrerupt	-11.1531
▁larga	-11.1534
▁indirect	-11.154
▁66	-11.1543
▁apropiere	-11.1546
▁nefericire	-11.1547
▁inversores	-11.1547
▁sueca	-11.1548
▁stau	-11.1548
▁5)	-11.1553
▁limbile	-11.1555
▁organizate	-11.1558
▁facilitarea	-11.1561
▁credite	-11.1565
ica	-11.1565
▁bărbaţi	-11.1566
▁contaminantes	-11.1567
26	-11.1571
▁legături	-11.1571
▁birou	-11.1572
▁cristianos	-11.1577
▁pequeña	-11.1579
antes	-11.1581
▁impulso	-11.1583
▁uniformă	-11.1584
16	-11.1586
▁tribunales	-11.1588
▁capacitate	-11.1591
▁termenii	-11.1593
▁importanță	-11.1593
▁greciei	-11.1593
▁viajeros	-11.1593
▁detalles	-11.1596
▁producidos	-11.16
▁frontierele	-11.1601
izat	-11.1602
▁próximas	-11.1609
▁(20)	-11.1611
iii	-11.1612
▁bosques	-11.1613
▁unităţilor	-11.1614
▁tem	-11.1623
/1999	-11.1623
▁expiración	-11.1624
▁evaluaciones	-11.1624
▁egalităţii	-11.1625
▁limitat	-11.1629
▁constatat	-11.1631
▁codului	-11.1634
▁industrială	-11.1635
ñ	-11.1636
▁democrație	-11.1637
▁consentimiento	-11.1639
▁materialul	-11.1639
▁fechas	-11.1642
amiento	-11.1645
▁desean	-11.165
bra	-11.1661
▁recunoaşte	-11.1661
▁realizada	-11.1664
▁encontramos	-11.167
▁creăm	-11.167
▁elegido	-11.1671
▁moral	-11.1672
▁siria	-11.1673
tes	-11.1673
▁barreras	-11.1674
▁alternativas	-11.1675
reg	-11.1678
▁bunăstarea	-11.1681
lv	-11.1683
▁desastres	-11.1684
dministraciones	-11.1687
▁envase	-11.1688
▁actores	-11.1689
▁monedei	-11.1691
▁președintele	-11.1692
▁verificări	-11.1694
▁adoptăm	-11.1694
▁eticheta	-11.1694
ru	-11.1695
turi	-11.1696
tion	-11.1698
rom	-11.1698
▁reamintesc	-11.1701
▁soberanía	-11.1701
▁reţeaua	-11.1701
▁principală	-11.1702
▁belgia	-11.171
▁"(	-11.1714
▁250	-11.1717
▁manieră	-11.1718
▁strict	-11.1724
▁ofrecen	-11.1726
▁vechi	-11.1729
ările	-11.173
▁71	-11.1732
▁hotărăşte	-11.1732
▁alguien	-11.1732
▁hubiese	-11.1732
▁lider	-11.1736
ene	-11.1737
▁presentados	-11.1739
▁înaltă	-11.1745
▁atare	-11.1746
▁transportate	-11.1746
▁refuerzo	-11.1747
▁săptămână	-11.1747
(8)	-11.1749
▁transcurrido	-11.175
▁operatorilor	-11.1753
▁islanda	-11.1754
▁exhaustiva	-11.1754
75	-11.1755
▁discuţii	-11.1757
▁transformare	-11.1759
▁definitivo	-11.1759
▁viză	-11.1761
▁uruguay	-11.1763
▁segura	-11.1763
tó	-11.1764
▁ataques	-11.1766
▁permanentă	-11.177
▁z	-11.1776
▁regulamentelor	-11.178
▁depozit	-11.1781
▁deţinute	-11.1782
▁etape	-11.1782
▁excepcional	-11.1783
eu	-11.1784
▁observar	-11.1784
23	-11.1785
▁limitate	-11.1786
▁susţinem	-11.1786
▁secreto	-11.1787
▁aportar	-11.179
▁încercat	-11.1791
▁respect	-11.1794
▁acquis	-11.1794
▁intenţia	-11.1794
▁condiţie	-11.1794
▁plen	-11.1796
▁guvernelor	-11.1803
▁analizăm	-11.1803
▁dovedi	-11.1803
▁rechazar	-11.1803
ry	-11.1803
▁inspecţii	-11.1804
▁requieren	-11.1805
▁permitido	-11.1812
▁satisfactoria	-11.1812
▁fitosanitario	-11.1812
▁acompañada	-11.1813
▁informaţie	-11.1816
▁presupuestarios	-11.1821
▁plurianual	-11.1822
▁fermă	-11.1822
▁justa	-11.1824
▁integrate	-11.1825
▁concluzie	-11.1825
▁fundación	-11.1826
▁0	-11.1831
▁marine	-11.1837
rg	-11.1838
▁deporte	-11.1841
▁religión	-11.1841
▁clientes	-11.1842
▁teritoriale	-11.1843
▁uva	-11.1847
▁movimientos	-11.1848
▁alege	-11.1851
▁aparţin	-11.1851
▁folosind	-11.1852
▁înregistrează	-11.1857
▁renovación	-11.1857
▁km	-11.1858
▁anuală	-11.1862
▁rezonabil	-11.1866
▁asociados	-11.1866
▁efectúen	-11.1871
mu	-11.1873
▁equilibrado	-11.1875
▁compuesto	-11.1875
▁existan	-11.1876
▁personalul	-11.1877
▁naturalmente	-11.1883
▁zahărului	-11.1883
▁armonizare	-11.1886
▁destrucción	-11.1889
erii	-11.189
▁tu	-11.1891
................	-11.1892
▁acţiona	-11.1892
▁democráticos	-11.1894
▁deputaţii	-11.1895
▁desfăşurate	-11.1898
▁usar	-11.19
sh	-11.1902
▁direcția	-11.1904
▁legat	-11.1908
▁interval	-11.1915
▁garanţiile	-11.1916
▁enumeradas	-11.1921
▁economici	-11.1924
▁relațiile	-11.1925
▁franceze	-11.1927
ţă	-11.1927
▁concreta	-11.193
▁colectarea	-11.1931
▁unuia	-11.1935
▁concentrăm	-11.1936
▁alţii	-11.1936
▁aderării	-11.1936
▁90/425/	-11.1937
▁generación	-11.1938
votación	-11.1939
▁obține	-11.1942
▁obiectivului	-11.1943
▁specificaţiile	-11.1943
▁new	-11.1944
ismul	-11.1951
▁ocurre	-11.1952
eni	-11.1952
▁méxico	-11.1952
▁armonizadas	-11.1954
▁energías	-11.1956
▁efort	-11.1957
▁legitim	-11.1961
▁peces	-11.1965
▁înfiinţarea	-11.1977
▁intervenir	-11.1983
▁treinta	-11.1986
debate	-11.1986
▁strategice	-11.1987
mul	-11.1988
tele	-11.1991
▁72	-11.1992
2.	-11.1992
▁renta	-11.1993
▁justificate	-11.1993
▁realicen	-11.1997
▁gradul	-11.2
▁guantánamo	-11.2
▁reprezentând	-11.2
▁concedidas	-11.2004
▁răspunderea	-11.2005
▁judiciare	-11.2008
▁efective	-11.2015
▁eficiența	-11.2016
▁oricăror	-11.2016
▁estratégico	-11.2019
▁promovare	-11.2019
▁alegra	-11.2021
▁contractual	-11.2021
numite	-11.2022
▁rămas	-11.2025
▁starea	-11.2028
▁asamblea	-11.2031
▁dimensiune	-11.2031
idades	-11.2031
▁rompuy	-11.2032
▁aspira	-11.2032
▁conturilor	-11.2032
▁bio	-11.2033
▁ambicioso	-11.2035
▁embalaje	-11.2035
▁baze	-11.2035
▁petrol	-11.2039
▁reconoce	-11.2039
▁cerealelor	-11.2045
▁forţa	-11.2046
▁rezoluții	-11.2048
▁peor	-11.2049
▁convencido	-11.2051
▁laborator	-11.2052
▁reţelei	-11.2052
▁anuncio	-11.2052
▁supune	-11.2053
▁ordin	-11.2056
▁com	-11.2056
▁aquel	-11.2059
▁ajutoarelor	-11.2064
▁cantităţii	-11.2065
▁torno	-11.2066
▁go	-11.2069
▁reducerii	-11.2074
▁pasa	-11.2074
▁aprueba	-11.2075
▁situate	-11.2076
▁fitofarmaceutic	-11.208
▁lamentable	-11.208
▁secretaría	-11.208
▁autovehicule	-11.2081
▁îmbunătăţire	-11.2083
▁presiuni	-11.2083
▁tendría	-11.2085
▁impuls	-11.2087
eri	-11.2091
▁notificate	-11.2092
▁regiunii	-11.2094
▁teste	-11.2095
▁tengamos	-11.2096
gă	-11.2098
▁insuficiente	-11.2104
▁adaptate	-11.2105
▁parlamentos	-11.2107
▁linii	-11.2108
▁organizar	-11.2109
▁convenţie	-11.2111
▁hotărâre	-11.2112
▁finlanda	-11.2112
▁regretabil	-11.2114
▁sustituido	-11.2116
▁apoyamos	-11.2116
99	-11.2123
▁69	-11.2127
ng	-11.2128
▁malmström	-11.2129
▁vârsta	-11.2129
▁arhitectură	-11.2129
▁estaban	-11.213
▁usos	-11.213
dezbatere	-11.2131
▁dando	-11.214
▁56	-11.2145
▁cuantumul	-11.2145
▁menţionez	-11.2146
▁trabajan	-11.2147
▁declara	-11.2148
▁echipa	-11.2155
▁alb	-11.2158
▁elaborate	-11.2163
▁distinta	-11.2164
▁stocurilor	-11.2165
▁finanţate	-11.2166
▁răspundere	-11.2167
son	-11.2172
▁armonizar	-11.2174
▁ajute	-11.2177
07	-11.218
▁imposibil	-11.2184
▁efectul	-11.2188
▁interesante	-11.2189
▁infracciones	-11.2194
▁turciei	-11.2194
▁ratificación	-11.2194
▁arancelarias	-11.2197
(4)	-11.2197
▁indicarea	-11.2198
▁urmat	-11.2199
▁atent	-11.2205
bilă	-11.2207
▁negro	-11.2219
▁cooperar	-11.2219
▁preferencias	-11.2219
ino	-11.222
▁sal	-11.2221
▁asegurarse	-11.2232
▁conservar	-11.2232
▁competenţelor	-11.2235
▁exporturile	-11.2236
▁ouălor	-11.2239
▁împrumut	-11.224
▁bolilor	-11.224
▁burocracia	-11.2243
▁eroare	-11.2243
▁organizații	-11.2243
▁dezvolte	-11.2244
▁estimular	-11.2244
▁calculează	-11.2245
▁sólida	-11.2246
▁diputado	-11.2246
▁administrare	-11.2246
▁dobânzii	-11.2249
▁reprezentative	-11.2253
▁darle	-11.2255
▁competenţă	-11.2259
▁/	-11.226
▁resumen	-11.226
▁oportunas	-11.2265
▁aparte	-11.2269
▁excluir	-11.2271
▁comisii	-11.2271
(1)	-11.2272
ster	-11.2273
▁probe	-11.2274
▁limbă	-11.2275
▁sigură	-11.2277
▁versiune	-11.2278
▁2018	-11.2278
▁(1	-11.2279
▁incluirse	-11.2281
▁disponibil	-11.2283
▁alegerilor	-11.2285
▁plátanos	-11.2286
▁quedado	-11.229
▁limitelor	-11.2291
▁alrededor	-11.2292
▁şedere	-11.2292
▁democrației	-11.2294
▁impulsar	-11.2296
▁anexelor	-11.2297
▁67	-11.2298
▁lu	-11.2303
▁dirigidas	-11.2304
▁enfrentan	-11.2306
▁distrito	-11.2308
▁infrastructura	-11.2308
▁sărăcie	-11.2309
▁livrate	-11.2313
▁teren	-11.2316
▁encuestas	-11.2317
▁automat	-11.2317
cat	-11.2321
▁legislației	-11.2322
▁consolidare	-11.2325
▁presupuestarias	-11.2327
▁tierras	-11.233
▁menciona	-11.2331
lar	-11.2334
▁adaptarse	-11.2337
▁parteneriatul	-11.2341
▁concierne	-11.2341
▁directorul	-11.2342
▁procedencia	-11.2342
▁altos	-11.2345
▁parteneri	-11.2349
sion	-11.2349
▁sarcinilor	-11.2354
78	-11.2355
▁perder	-11.2357
cho	-11.2357
▁apropiat	-11.2358
▁campionatul	-11.2358
▁socialistas	-11.2361
▁verdes	-11.2367
▁medii	-11.2368
▁impresión	-11.2374
▁imediată	-11.2375
▁periódicamente	-11.2376
▁claritate	-11.2377
▁relacionada	-11.2379
▁poli	-11.2381
▁sacar	-11.2381
▁efectuada	-11.2382
▁favorabil	-11.2388
▁durabil	-11.2389
▁ratei	-11.2389
▁asistida	-11.2391
▁tragedia	-11.2391
▁secretario	-11.2392
▁debajo	-11.2392
▁fijarse	-11.2394
▁supravegherii	-11.2396
▁relacionado	-11.2396
▁cree	-11.2397
▁78	-11.2397
▁definitiv	-11.2397
▁91	-11.2397
▁acoperite	-11.2398
▁dispun	-11.24
▁producătorului	-11.2401
▁situaţiile	-11.2403
▁tărie	-11.2408
mas	-11.2409
▁adresate	-11.2411
▁refuza	-11.2411
▁citados	-11.2411
▁relaţii	-11.2416
▁anticipada	-11.2417
▁du	-11.2419
th	-11.2419
▁sprijinit	-11.242
▁capitalului	-11.2421
▁acordării	-11.2422
▁inclusă	-11.2423
▁danubio	-11.2424
▁relieve	-11.2424
▁cerrar	-11.2425
▁definida	-11.243
▁trafic	-11.2431
▁firmar	-11.2436
▁cuidado	-11.2437
▁discapacidad	-11.2437
▁educație	-11.2441
▁estima	-11.2441
▁făcând	-11.2441
▁constitucional	-11.2442
▁números	-11.2442
▁cierta	-11.2443
aba	-11.2443
▁comerțului	-11.2445
▁ahorro	-11.2445
▁indispensable	-11.2445
▁recomandarea	-11.2446
▁observat	-11.2447
▁someterá	-11.2449
▁cal	-11.2452
▁aeropuertos	-11.2453
ck	-11.2454
▁producen	-11.2455
▁música	-11.2458
▁proaspete	-11.2458
▁știință	-11.2458
▁inițiativă	-11.2458
▁insto	-11.2462
▁dirigida	-11.2463
nas	-11.2468
▁încălcări	-11.2469
▁rezoluţii	-11.247
▁îmbunătăți	-11.2473
▁meridional	-11.2475
▁revine	-11.2475
▁acabar	-11.2478
▁izquierda	-11.2478
▁médico	-11.2479
iune	-11.248
▁nominal	-11.2483
▁multianual	-11.2484
▁congo	-11.2488
▁intenciones	-11.2491
▁refuză	-11.2493
▁gazelor	-11.2495
▁formulario	-11.2496
▁intrare	-11.2497
▁avizului	-11.2497
▁patente	-11.2499
lic	-11.25
▁químicos	-11.2503
▁mecanismul	-11.2506
▁antrepozit	-11.2507
▁acvacultură	-11.2508
▁reacción	-11.2508
▁("	-11.251
és	-11.2511
▁acceptarea	-11.2511
▁listei	-11.2514
▁viene	-11.2516
▁ratele	-11.2519
8,	-11.252
▁delitos	-11.2521
▁entregas	-11.2525
▁obţină	-11.2529
▁tranzacţiile	-11.2532
▁normativas	-11.2533
▁deber	-11.2534
▁urgentă	-11.2535
▁oportunităţi	-11.2536
▁previsiones	-11.2542
▁spiritul	-11.2544
+	-11.2545
▁deschide	-11.2546
▁prelucrării	-11.2547
22	-11.2548
▁sfârșit	-11.2552
▁incentivos	-11.2553
▁anchete	-11.2554
▁independentă	-11.2554
▁produzcan	-11.2556
▁păstrează	-11.2559
▁1766/92	-11.2559
▁opinii	-11.2563
▁aeropuerto	-11.2564
▁dăm	-11.2565
ţilor	-11.2569
▁instalaţii	-11.2571
▁reuni	-11.2574
▁totalul	-11.2576
▁detención	-11.2576
▁perioadele	-11.2577
▁democráticas	-11.2577
▁flexibilitate	-11.2577
istă	-11.2579
▁deţin	-11.2581
▁combustible	-11.2581
▁tutun	-11.2582
▁materialului	-11.2584
▁diferenţele	-11.2586
▁competenţe	-11.2588
▁aprobă	-11.2592
▁expectativas	-11.2594
▁suspender	-11.2595
▁știu	-11.2596
▁suportate	-11.2598
▁aprobada	-11.2599
▁citada	-11.2599
▁consideren	-11.2607
98	-11.2609
▁implice	-11.261
▁exerciţiului	-11.2611
▁discursul	-11.2612
▁minorităţilor	-11.2613
▁modifican	-11.2618
(3)	-11.262
▁transparență	-11.2627
▁posee	-11.2627
▁ronda	-11.2627
▁alternativă	-11.2631
ana	-11.2632
▁formării	-11.2633
▁semn	-11.2634
▁confirmar	-11.264
▁responsabili	-11.2642
demócrata	-11.2644
▁douăzeci	-11.2644
▁vulnerabile	-11.2646
▁89	-11.2648
▁hombre	-11.2649
▁protocolului	-11.2649
▁capitales	-11.2652
▁retraso	-11.2653
▁analize	-11.2656
▁cadrului	-11.2659
▁restituirii	-11.2659
▁agricultorii	-11.2659
▁difusión	-11.2661
▁franța	-11.2661
▁conserva	-11.2664
▁forman	-11.2664
▁ridicată	-11.2674
▁62	-11.2674
▁garanţiei	-11.2675
▁reuniune	-11.2679
▁osce	-11.2679
▁răspund	-11.2682
▁acoperi	-11.2683
▁dimensiuni	-11.2683
▁dispuestos	-11.2684
▁nabucco	-11.2695
▁vis	-11.2698
▁reprezinte	-11.2699
▁introducă	-11.27
▁destaca	-11.2701
▁encuentre	-11.2701
/3	-11.2703
▁derivadas	-11.2704
ps	-11.2706
▁instalaţiile	-11.2707
▁...	-11.2714
▁120	-11.2717
▁monetario	-11.2718
▁extinsă	-11.2718
▁forestiere	-11.2719
▁administrativ	-11.2722
▁discurso	-11.2722
cha	-11.2723
24	-11.2723
▁examina	-11.2727
▁habitantes	-11.2729
▁organizaţie	-11.273
▁accident	-11.2732
▁disponibilitate	-11.2733
▁perfecţionare	-11.2734
▁virus	-11.2736
▁propusă	-11.2737
▁lucrări	-11.2742
rd	-11.2746
▁abordăm	-11.2746
▁reparto	-11.2746
▁salva	-11.2749
▁grasas	-11.2751
▁soluții	-11.2751
▁pierde	-11.2752
ști	-11.2752
▁raza	-11.2754
▁fixate	-11.2757
dis	-11.2758
▁statisticile	-11.2758
▁ambiental	-11.276
▁idei	-11.276
▁medicamentelor	-11.2761
▁refleja	-11.2762
▁medición	-11.2764
▁tipurile	-11.2764
▁atrage	-11.2767
▁padres	-11.2772
▁provoca	-11.2776
▁conversaciones	-11.2781
▁(21)	-11.2782
▁transformarea	-11.2785
▁ingrediente	-11.2788
▁infantil	-11.279
▁mijloacelor	-11.279
▁consolidată	-11.2791
▁stabilim	-11.2792
▁constituit	-11.2792
▁tradicional	-11.2794
▁noului	-11.2795
▁conciencia	-11.2797
▁puteţi	-11.2798
▁rezervă	-11.2798
▁spaniei	-11.2798
▁subvención	-11.2798
▁felul	-11.2799
▁comisarios	-11.2801
▁declară	-11.2802
▁nevoilor	-11.2802
▁1999.	-11.2803
tiva	-11.2804
▁manual	-11.2807
▁regula	-11.2809
▁coeficiente	-11.2809
▁concret	-11.281
▁cubiertos	-11.2811
▁privi	-11.2812
▁centru	-11.2813
▁licenţelor	-11.2814
▁rusiei	-11.2816
▁partidas	-11.282
▁expres	-11.2821
▁mexic	-11.2822
▁corresponda	-11.2822
▁fibras	-11.2822
amente	-11.2824
▁statistic	-11.2825
▁dovedeşte	-11.2833
▁exemple	-11.2833
▁compensatorii	-11.2833
▁solicitant	-11.2833
dic	-11.2836
▁argument	-11.2837
▁reguladora	-11.284
▁convertir	-11.2841
▁naştere	-11.2842
▁operaţionale	-11.2842
▁someter	-11.2848
▁normale	-11.2849
▁specia	-11.2851
▁interlocutores	-11.2851
▁rată	-11.2854
▁teritoriile	-11.2856
▁tarifas	-11.2857
lia	-11.286
▁arme	-11.2863
▁pongan	-11.2864
▁frecvent	-11.2869
▁veni	-11.2871
▁sociali	-11.2874
▁empresarios	-11.2876
▁visita	-11.2877
▁experienţă	-11.2885
▁seguido	-11.2886
▁destinatar	-11.2887
▁coopera	-11.2889
▁obstáculo	-11.2891
▁tomando	-11.2891
▁pudiera	-11.2892
bol	-11.2897
▁publicul	-11.2898
▁coeziunea	-11.2898
▁limitada	-11.2899
▁siguiendo	-11.2903
▁trabajador	-11.2904
▁şomajului	-11.2905
▁pescado	-11.2906
ură	-11.2907
▁posibilitate	-11.2913
ct	-11.2913
▁aprobará	-11.2914
▁calcular	-11.2918
▁lucrat	-11.292
▁74	-11.292
▁fracaso	-11.292
tr	-11.292
▁alzado	-11.292
▁afla	-11.2921
▁sincer	-11.2924
▁importadores	-11.2926
▁uniform	-11.2927
▁ton	-11.2928
▁patatas	-11.293
▁opiniile	-11.2933
▁consecinţe	-11.2934
▁contribuirá	-11.2936
▁adjudicación	-11.2938
▁estabilización	-11.2938
▁boală	-11.2938
▁universidades	-11.2941
▁asistată	-11.2942
▁fabricaţie	-11.2943
▁franquicia	-11.2944
▁cláusulas	-11.2944
▁summit	-11.2945
▁traslado	-11.2945
▁menţină	-11.2946
▁aştept	-11.2951
ntracomunitarios	-11.2953
▁bovinos	-11.2954
▁implicaţi	-11.2954
▁higiene	-11.2955
▁amestec	-11.2963
▁130	-11.2965
▁bucură	-11.2965
ee	-11.2967
▁ja	-11.2968
▁asigurând	-11.2968
▁patrulea	-11.2975
▁exprimată	-11.2976
▁realitatea	-11.2976
▁limitaciones	-11.2976
▁aprobată	-11.2981
▁intento	-11.2982
▁scurtă	-11.2983
▁președinția	-11.2983
▁contables	-11.2984
▁ignora	-11.2988
erea	-11.2989
▁lucra	-11.2989
▁combinación	-11.2991
▁posteriori	-11.2992
tat	-11.2993
▁sudán	-11.2997
▁rapide	-11.2998
▁respeten	-11.2999
▁recupera	-11.2999
ias	-11.3
▁obligado	-11.3
▁habitual	-11.3002
▁llegada	-11.3002
rv	-11.3002
▁mezcla	-11.3006
▁joace	-11.3008
▁agrupaciones	-11.3008
▁prosperidad	-11.3008
▁generaciones	-11.301
ind	-11.3013
▁europol	-11.3013
▁publicat	-11.3013
▁xx	-11.3014
▁sri	-11.3014
▁garantizarán	-11.3016
4.	-11.3017
▁strategică	-11.302
▁reuniunii	-11.3023
▁mostrado	-11.3024
▁veniturilor	-11.3025
▁1967	-11.3025
▁tortura	-11.3026
▁73	-11.3027
▁licencias	-11.3028
▁îndemn	-11.3029
▁plasate	-11.303
▁circumstanţe	-11.3031
eros	-11.3032
▁regulares	-11.3036
▁ajusta	-11.3039
▁aferent	-11.3039
dem	-11.3039
▁indicadas	-11.3039
▁ştiinţifică	-11.3042
▁noruega	-11.3044
▁conlleva	-11.3044
▁operează	-11.3044
tina	-11.3045
▁construirea	-11.3046
▁pasos	-11.3048
▁sufren	-11.3048
▁mon	-11.3049
▁familiares	-11.3049
▁fijada	-11.3054
▁monetar	-11.3055
▁furajelor	-11.306
▁alzheimer	-11.3061
▁futbolistas	-11.3061
▁şanse	-11.3061
▁principalul	-11.3062
▁mil	-11.3063
▁ejemplos	-11.3063
▁complementar	-11.3063
▁bancar	-11.3063
▁limitarea	-11.3067
▁indique	-11.3068
▁bolii	-11.3071
▁multilateral	-11.3072
▁neto	-11.3074
▁ecologic	-11.3077
▁referéndum	-11.3079
▁época	-11.3079
▁guvernatorilor	-11.3079
▁mundiales	-11.3081
▁stadiul	-11.3082
▁irak	-11.3083
▁feag	-11.3085
cie	-11.3085
▁ju	-11.3089
▁destinaţia	-11.3091
ona	-11.3092
▁ilegală	-11.3093
▁delincuencia	-11.3097
▁primeşte	-11.3098
▁situado	-11.3105
▁intracomunitar	-11.3107
▁planta	-11.3109
▁combustibles	-11.311
▁barcos	-11.3113
▁socialista	-11.3117
▁limitación	-11.3119
▁construi	-11.3119
▁facilitada	-11.3119
▁contamina	-11.3124
▁conservare	-11.3126
▁sanitar	-11.3127
▁dezastru	-11.3129
▁dura	-11.313
▁britanie	-11.3133
▁maternidad	-11.3133
▁interiores	-11.3133
▁speciilor	-11.3137
▁domésticos	-11.3142
▁terroristas	-11.3144
▁conducerea	-11.3144
▁teatro	-11.3151
▁mecanismele	-11.3152
▁marcajul	-11.3152
▁llevan	-11.3156
▁sustancial	-11.3158
▁privada	-11.3159
▁solucionar	-11.3159
/2	-11.3162
▁empresarial	-11.3165
▁non	-11.3166
▁futuros	-11.3167
▁găsească	-11.3169
▁promovează	-11.3169
21	-11.3172
▁calcularea	-11.3173
▁quedarán	-11.3174
log	-11.3175
▁báltico	-11.3175
2010	-11.3177
▁legală	-11.3177
▁integrada	-11.3177
▁resultan	-11.318
▁ben	-11.3181
▁recunoscută	-11.3182
▁podía	-11.3182
45	-11.3183
▁barnier	-11.3187
▁équidos	-11.3187
▁quería	-11.3187
▁examinează	-11.3187
▁tolera	-11.3188
▁enfrentamos	-11.3191
▁oară	-11.3191
tului	-11.3192
▁port	-11.3193
▁sigan	-11.3194
nes	-11.3196
▁roma	-11.3197
▁sala	-11.3198
▁viitoarea	-11.3198
▁impună	-11.3199
numirilor	-11.32
▁mas	-11.3202
▁consultări	-11.3203
▁procentul	-11.3203
▁europe	-11.3203
▁cehe	-11.3204
▁administrarea	-11.3206
▁aplicadas	-11.3206
▁fotbaliști	-11.3206
▁populației	-11.321
▁diseño	-11.3211
▁contenga	-11.3212
▁st	-11.3217
▁echitabil	-11.3218
este	-11.3221
adores	-11.3222
▁probable	-11.3222
▁electrică	-11.3225
siderablemente	-11.3226
▁93	-11.3226
▁autorităților	-11.3227
43	-11.3227
▁doy	-11.3228
▁conferite	-11.3229
▁competitiva	-11.323
▁drumul	-11.323
▁tradiţionale	-11.3231
▁denumit	-11.3232
▁herramientas	-11.3233
▁reţelelor	-11.3235
▁plăti	-11.3236
▁pă	-11.3237
▁criminal	-11.3238
▁emprender	-11.3241
▁detrimentul	-11.3241
▁materialelor	-11.3245
▁vândute	-11.3247
▁discriminării	-11.3248
▁juca	-11.3249
▁profund	-11.3251
▁precise	-11.3253
▁ayudará	-11.3254
▁încurajarea	-11.3255
▁priorităţi	-11.3255
▁garantizará	-11.3257
▁trimestre	-11.3259
▁achiziţie	-11.3259
▁acelerar	-11.3259
▁aprovizionării	-11.326
▁planificación	-11.326
▁depósitos	-11.3262
▁respeta	-11.3264
▁aceptable	-11.3266
▁ajungem	-11.327
▁ruta	-11.3271
▁médicos	-11.3272
▁colective	-11.3274
▁aprender	-11.3277
▁acceptă	-11.3277
▁pescadores	-11.328
illa	-11.3281
▁admise	-11.3284
▁añade	-11.3284
para	-11.329
▁titulares	-11.3293
▁desfăşoare	-11.3295
▁fécula	-11.3295
▁contener	-11.3295
▁mala	-11.3299
▁acordado	-11.3302
▁herramienta	-11.3303
▁evidentemente	-11.3303
▁preocupările	-11.3305
uu	-11.3305
▁indicada	-11.3307
▁prezentare	-11.331
▁63	-11.3312
▁chi	-11.3314
▁preconizate	-11.3314
▁(22)	-11.3315
73	-11.3318
ña	-11.332
ect	-11.3325
iu	-11.3325
▁abandonar	-11.3326
▁sensibile	-11.3326
sur	-11.333
▁ee	-11.3331
▁apa	-11.3335
ov	-11.3336
▁estructural	-11.3336
notificada	-11.3336
▁egalitate	-11.3337
▁devin	-11.3339
▁afganistan	-11.3339
▁ştie	-11.334
▁conceda	-11.334
▁transparentes	-11.334
şte	-11.3342
▁tenerse	-11.3343
iţi	-11.3348
▁protocol	-11.3348
▁restituirea	-11.3349
▁elaboreze	-11.335
▁familiar	-11.3352
▁pregătire	-11.3355
▁summitul	-11.3356
▁linie	-11.336
▁ideal	-11.3362
▁llevarse	-11.3362
▁alcool	-11.3363
▁spaţiu	-11.3365
▁resulten	-11.3368
▁auténtica	-11.3368
▁suediei	-11.3368
▁vicepreşedinte	-11.3368
▁lanka	-11.3369
▁110	-11.337
▁impozitare	-11.3373
▁datei	-11.3374
▁exercita	-11.3375
▁comprometido	-11.3376
▁notificării	-11.3378
▁admitir	-11.3379
▁justificar	-11.338
▁intracomunitari	-11.3382
▁consideran	-11.3383
▁flujos	-11.3385
▁barcelona	-11.3387
▁dignidad	-11.3387
▁reprezentanți	-11.3387
▁migración	-11.3387
▁189	-11.339
▁cuál	-11.3391
▁ocupă	-11.3397
▁chestiunile	-11.3404
▁1257/1999	-11.3405
▁teritorială	-11.3406
▁interimar	-11.3409
▁contienen	-11.341
▁schimburi	-11.3411
▁acţiunii	-11.3413
sos	-11.3419
din	-11.3419
▁bovină	-11.3424
»;	-11.3425
▁estrechamente	-11.3429
▁plano	-11.3429
▁veinte	-11.3442
▁inițiativa	-11.3442
▁româniei	-11.3442
▁medicamentele	-11.3443
▁contable	-11.3443
/5	-11.3444
▁duro	-11.3453
▁supervisar	-11.3454
▁consultar	-11.3454
izeze	-11.3457
▁trabajado	-11.346
▁constituirea	-11.346
▁provenienţă	-11.346
col	-11.3461
▁definitivamente	-11.3464
▁idioma	-11.3468
▁jucat	-11.3472
▁locală	-11.3473
▁supra	-11.3476
▁statistici	-11.3477
▁schulz	-11.3479
▁motores	-11.3479
08	-11.348
▁arancelarios	-11.348
▁veterinaria	-11.3481
▁sancţiunile	-11.3481
torul	-11.3484
▁detallada	-11.3485
▁belga	-11.3487
▁presentan	-11.3487
▁quizá	-11.3488
▁activitățile	-11.3489
▁wi	-11.349
▁schimbarea	-11.3498
▁suministrar	-11.3498
▁muestreo	-11.35
▁națiunilor	-11.35
▁lucreze	-11.3501
ot	-11.3502
▁stocare	-11.3502
[	-11.3502
▁film	-11.3504
/1	-11.3504
▁recortes	-11.3505
▁complementaria	-11.3507
▁temporare	-11.3509
▁brutal	-11.351
xi	-11.3511
▁contabil	-11.3513
▁examinará	-11.3513
▁eco	-11.3514
▁sis	-11.3515
▁caza	-11.3516
▁laboratorios	-11.3518
▁exportului	-11.352
▁raportorilor	-11.3526
▁sute	-11.3526
▁expedidor	-11.3527
▁derogado	-11.3527
▁propunerilor	-11.3528
▁practicilor	-11.3528
▁argentina	-11.3535
▁84	-11.3536
sco	-11.3538
▁create	-11.354
▁formula	-11.3544
▁estic	-11.3544
▁aparato	-11.3546
▁răspunsuri	-11.355
▁obiecte	-11.3552
▁atlántico	-11.3553
▁campanii	-11.3553
▁marfă	-11.3554
▁sport	-11.3555
▁aspectul	-11.3558
▁retragere	-11.356
▁12,	-11.3565
▁normală	-11.3573
▁cineva	-11.3573
▁cosmetice	-11.3575
▁respetando	-11.3575
▁ansamblul	-11.3576
▁detaliată	-11.3578
▁însemna	-11.3579
▁apelor	-11.3584
29	-11.3584
5.	-11.3587
▁banane	-11.3588
▁acepta	-11.3588
▁bal	-11.359
▁invernadero	-11.3591
▁reducciones	-11.3591
▁tele	-11.3593
▁beneficiare	-11.3594
▁gestionării	-11.3595
▁dur	-11.3596
▁solicitantului	-11.3597
▁spatele	-11.3599
▁tro	-11.36
▁impunerea	-11.3601
▁verificar	-11.3601
▁sumelor	-11.3607
▁armonizat	-11.3608
▁plăteşte	-11.3609
▁crediticia	-11.361
▁wikipedia	-11.361
▁hotărârea	-11.3611
▁nomenclaturii	-11.3615
▁desfăşurarea	-11.3616
▁conţinând	-11.3617
▁suelo	-11.3619
35	-11.3619
▁orientările	-11.3621
▁desemnează	-11.3628
▁preparate	-11.3633
▁scutirea	-11.3633
▁dónde	-11.3634
▁confidencial	-11.3636
care	-11.3636
rat	-11.3636
▁comités	-11.3636
▁cuvânt	-11.3636
▁ocurrido	-11.3637
▁seguirán	-11.3638
▁jefes	-11.3641
▁cote	-11.3642
▁înaintat	-11.3645
▁estable	-11.3648
arán	-11.3649
▁presei	-11.3654
▁estadísticos	-11.3656
18/	-11.3663
▁copa	-11.3665
▁vegetal	-11.3666
▁dorește	-11.3666
▁convergencia	-11.3666
ografi	-11.3669
▁dorinţa	-11.367
▁descrierea	-11.3673
▁ministru	-11.3673
▁contribuido	-11.3674
▁sistemática	-11.3676
▁cunoscut	-11.3681
▁penale	-11.3682
▁transforma	-11.3684
▁reţea	-11.3685
▁diagnóstico	-11.3685
▁restricción	-11.3685
▁verifice	-11.3685
cristianos	-11.369
nic	-11.3692
▁negativo	-11.3692
▁funciona	-11.3693
pc	-11.3694
▁exporturilor	-11.3694
▁alerta	-11.3697
▁exprima	-11.3702
▁subsidiarităţii	-11.3704
▁york	-11.3704
ung	-11.3705
▁agenţiile	-11.3707
▁umanitare	-11.3707
▁electronic	-11.3708
▁reproducere	-11.3709
nto	-11.3709
▁prioritare	-11.3709
ales	-11.3713
▁statutului	-11.3714
▁adaug	-11.3715
▁obligat	-11.3716
▁înfiinţat	-11.372
bg	-11.3722
▁mânzat	-11.3723
▁urgență	-11.3724
▁destacado	-11.3724
▁parcurs	-11.3729
▁indicaţiile	-11.3729
▁respectând	-11.3729
▁justificată	-11.373
▁viajes	-11.3732
▁conducta	-11.3732
▁încheiere	-11.3733
▁lucrările	-11.3736
mina	-11.3739
▁medical	-11.374
▁bănci	-11.3741
▁realizará	-11.3744
▁îndeplinit	-11.3744
▁compensa	-11.3745
▁fenomen	-11.3748
▁críticas	-11.3749
▁miras	-11.3751
▁mapa	-11.3752
▁votarea	-11.3754
▁atrás	-11.3761
▁xi	-11.3762
▁59	-11.3765
▁pocos	-11.3766
▁capacităţii	-11.3767
▁beneficiar	-11.3769
▁piețele	-11.3771
▁netă	-11.3773
▁susținut	-11.3777
▁dependen	-11.3783
▁temă	-11.3784
▁privados	-11.3784
▁joc	-11.379
▁afirmă	-11.3792
▁pesticide	-11.3797
▁disponibilidad	-11.3798
▁scrisă	-11.3799
▁privința	-11.3799
▁incluzând	-11.38
▁fiebre	-11.3807
▁aumentado	-11.3808
cio	-11.3809
▁habla	-11.3816
▁crească	-11.3818
▁iniţiale	-11.3819
▁doha	-11.382
▁cosméticos	-11.3821
▁ruedas	-11.3822
eta	-11.3824
▁suprafeţele	-11.3826
▁luxemburg	-11.3828
▁prezentării	-11.3832
▁super	-11.3833
98/	-11.3833
ian	-11.3835
▁influenţa	-11.3837
>	-11.3839
69	-11.384
▁funcţionării	-11.3841
▁apărut	-11.3842
▁precizeze	-11.3844
ologi	-11.3847
▁vremuri	-11.3849
▁tome	-11.3849
▁menţiunea	-11.3854
▁respectat	-11.3855
▁discuție	-11.3857
▁exercite	-11.3857
▁patra	-11.3859
▁integrat	-11.3865
▁verse	-11.3866
▁válido	-11.3866
▁ciudadano	-11.3866
▁agricultorilor	-11.3866
▁encuesta	-11.3867
▁polvo	-11.3876
▁50%	-11.3879
▁plasare	-11.3883
▁schimbat	-11.3883
▁bebidas	-11.3884
▁asimil	-11.3884
▁instituțiilor	-11.3888
tado	-11.3889
▁incidente	-11.389
sol	-11.3895
▁câţiva	-11.3895
▁reformele	-11.3895
▁efectuării	-11.3895
▁organizației	-11.3896
▁9.	-11.3902
▁fijarán	-11.3902
▁restituirilor	-11.3904
▁remitirá	-11.3904
▁pequeño	-11.3905
▁raportare	-11.3906
▁tomen	-11.3907
▁scrisori	-11.3909
▁confrunta	-11.3911
▁plăţilor	-11.3913
▁irlandei	-11.3915
▁protejeze	-11.3915
▁consolideze	-11.3915
▁vacunación	-11.3915
▁centrului	-11.3918
▁exigen	-11.3921
▁opera	-11.3921
▁respectul	-11.3921
▁exclusiva	-11.3924
▁minoría	-11.3925
▁deroga	-11.3928
▁seria	-11.393
▁ferrocarril	-11.393
▁transferencias	-11.393
▁constar	-11.3933
▁angajează	-11.3934
▁înceapă	-11.3934
▁conferinţa	-11.3934
▁preparado	-11.3935
▁pierderi	-11.3935
▁etnice	-11.3936
▁închiderea	-11.3938
▁marcă	-11.394
▁sfârșitul	-11.3941
▁considerados	-11.3942
▁notificará	-11.3944
▁participat	-11.3944
▁anticipo	-11.3946
▁normales	-11.3948
▁înalte	-11.395
▁estatutos	-11.3952
▁conştienţi	-11.3953
▁diciendo	-11.3953
▁utilizări	-11.3954
▁pierderea	-11.3955
endo	-11.3956
▁regulate	-11.3956
▁sărăcia	-11.3957
▁furnizat	-11.3958
▁expresa	-11.3959
▁rutiere	-11.3962
▁existir	-11.3962
ario	-11.3964
▁jurisdicción	-11.3973
▁simultan	-11.3973
▁afectada	-11.3973
▁ciudadana	-11.3973
▁salutăm	-11.3979
▁superiores	-11.3982
▁electrónica	-11.3983
▁encargado	-11.3983
▁clasificare	-11.3984
▁om	-11.3984
▁internos	-11.3988
▁asigurată	-11.3989
▁unanimitate	-11.3989
▁esențiale	-11.3992
▁afectată	-11.3993
▁clasa	-11.3995
▁estatales	-11.3997
▁oradores	-11.3998
▁definiţia	-11.3998
▁efectuarán	-11.3998
▁aprobados	-11.4002
▁ambalajele	-11.4004
▁cuprind	-11.4005
▁cri	-11.4009
▁satisfăcătoare	-11.4012
▁candidato	-11.4012
▁conciliación	-11.4012
pec	-11.4013
▁exploataţie	-11.4014
▁emisor	-11.4015
fl	-11.4016
▁agricultor	-11.4017
wa	-11.4019
▁echilibrată	-11.4019
▁încercare	-11.4021
▁premio	-11.4022
▁criterio	-11.4022
dr	-11.4024
▁ciclo	-11.4026
▁contenidas	-11.4026
▁materialele	-11.4027
▁romaní	-11.4028
▁puteri	-11.4032
▁suspendarea	-11.4034
▁exprimă	-11.4034
▁equilibrada	-11.4034
▁enormes	-11.4038
▁dosarul	-11.4039
▁menţiuni	-11.404
▁libres	-11.4041
▁dispongan	-11.4049
▁șase	-11.4051
▁oficiului	-11.4052
▁participen	-11.4053
▁deputaţilor	-11.4058
▁catástrofe	-11.4061
▁realizare	-11.4064
▁aceptado	-11.4064
▁orez	-11.4065
▁permise	-11.4065
▁salarios	-11.4069
▁legile	-11.4069
▁elimine	-11.4071
işti	-11.4071
▁indirectamente	-11.4073
96/	-11.4074
▁consumatorul	-11.4074
▁suprimir	-11.4082
▁provocar	-11.4084
▁6)	-11.4086
▁3719/88	-11.409
▁infrastructuri	-11.4093
▁ensayos	-11.4094
▁radical	-11.4094
▁planurilor	-11.4095
▁agenţi	-11.4096
▁mantiene	-11.4099
▁centra	-11.4099
▁crește	-11.4101
▁înlocui	-11.4101
▁funcționarea	-11.4101
van	-11.4108
▁colectiva	-11.411
▁804/68	-11.411
▁anualmente	-11.411
▁slovacia	-11.411
▁praf	-11.4111
▁cantitative	-11.4112
▁romilor	-11.4115
▁reunir	-11.4116
▁potencia	-11.412
▁eléctricos	-11.4121
▁universidad	-11.4126
▁entiendo	-11.4127
▁comprador	-11.4128
▁relativ	-11.413
▁estrasburgo	-11.413
▁sănătății	-11.413
▁urmăreşte	-11.413
ente	-11.4131
▁gubernamentales	-11.4132
▁facilitará	-11.4134
▁menciones	-11.4141
izează	-11.4143
ghe	-11.4145
▁90/42	-11.4149
▁transcurso	-11.415
▁nueve	-11.415
▁menţionaţi	-11.4151
nza	-11.4151
▁altura	-11.4152
▁părţii	-11.4153
(5)	-11.4154
▁militară	-11.4155
▁representar	-11.4161
▁rate	-11.4168
mis	-11.4169
▁exacción	-11.4169
reestructuración	-11.4171
▁ajutăm	-11.4172
osa	-11.4174
▁depozitarea	-11.4176
▁familiilor	-11.4177
▁figure	-11.4178
▁tendencia	-11.418
▁alimentarios	-11.4184
▁aprobadas	-11.4185
▁conferă	-11.4189
▁integridad	-11.419
▁culturi	-11.419
▁feroviare	-11.4192
▁comerțul	-11.4193
▁datorate	-11.4194
izo	-11.4194
▁concentra	-11.4197
▁mesajul	-11.4198
▁tolerancia	-11.42
▁echivalentă	-11.4202
▁muzică	-11.4209
▁provizorie	-11.4209
▁viteză	-11.4209
▁77	-11.421
▁sulf	-11.4212
▁pactul	-11.4212
▁desempeña	-11.4213
▁scutite	-11.4215
▁interrumpe	-11.4218
▁estadístico	-11.422
▁notas	-11.4223
▁directos	-11.4223
ător	-11.4225
▁democraţia	-11.4229
▁recesión	-11.4229
▁(23)	-11.423
▁contamos	-11.4232
▁furnizării	-11.4232
▁grăsimi	-11.424
▁reciban	-11.424
▁conducă	-11.4241
▁pagado	-11.4242
▁plăţii	-11.4243
bor	-11.4243
▁dioxid	-11.4245
▁recuperar	-11.4247
▁retrage	-11.4248
▁cealaltă	-11.4249
▁concluzia	-11.4249
▁dimpotrivă	-11.4249
▁strasbourg	-11.4249
▁online	-11.4249
▁89/391/	-11.425
▁emisie	-11.4254
▁schimba	-11.4257
▁ferroviario	-11.426
▁ovine	-11.4261
▁investiţiilor	-11.4261
▁11.	-11.4262
▁referi	-11.4264
creştin	-11.4266
▁construcţie	-11.4269
▁fortalecimiento	-11.4269
▁acopere	-11.4269
▁esperma	-11.4269
▁atún	-11.4269
▁situației	-11.427
▁factorii	-11.4271
▁alineatele	-11.4273
▁constituido	-11.4274
▁scăzute	-11.4275
▁someterse	-11.4275
▁sublinia	-11.4276
▁fabricate	-11.4277
▁específicamente	-11.4278
▁drum	-11.4278
82	-11.4279
▁ridicarea	-11.4282
▁sexuală	-11.4286
▁importar	-11.4286
▁publicarán	-11.4292
▁îndeplinirii	-11.4292
27	-11.4293
▁opus	-11.4294
▁colectare	-11.4297
▁turno	-11.4297
▁stimulare	-11.4298
▁inițiative	-11.43
▁dialogului	-11.4303
▁acceptată	-11.4304
▁supere	-11.4306
▁trimis	-11.4307
▁correcciones	-11.4309
▁rehn	-11.431
▁adaptaciones	-11.4311
▁amintim	-11.4311
▁detaliile	-11.4311
▁décadas	-11.4311
▁confirmat	-11.4313
▁denuncia	-11.4316
▁antiguo	-11.4321
▁cientos	-11.4321
▁notificarán	-11.4322
▁medicamento	-11.4325
▁reuşi	-11.4327
▁tomadas	-11.4328
▁declarate	-11.4328
▁restringir	-11.433
▁seră	-11.4332
▁domeniului	-11.4333
▁transformador	-11.4334
▁92	-11.4335
▁îngrijorare	-11.4337
▁catástrofes	-11.4339
▁disponibilă	-11.434
▁rolului	-11.4345
ki	-11.4346
ric	-11.4349
▁gestiona	-11.4349
▁biodiversidad	-11.435
▁dimensiones	-11.435
▁estocolmo	-11.435
▁constantemente	-11.4354
▁depind	-11.4354
▁reconocidas	-11.4354
▁10.	-11.4355
▁accesibile	-11.4357
▁adoptare	-11.4359
▁păstrarea	-11.4359
ște	-11.4362
▁reconstrucción	-11.437
▁încalcă	-11.437
▁gri	-11.437
▁măsurare	-11.4373
▁98	-11.4373
▁dispondrán	-11.4374
▁spaniolă	-11.4374
▁aerului	-11.4374
▁abarca	-11.4378
▁electrónicas	-11.438
▁foro	-11.438
▁1969	-11.4389
▁fórmula	-11.439
▁jubilación	-11.4391
▁modernización	-11.4391
▁dezbatem	-11.4392
▁fund	-11.4392
▁reducirá	-11.4395
▁actor	-11.4396
▁veo	-11.4397
notificată	-11.4398
▁consolidat	-11.4399
▁pregătit	-11.4399
▁pregătită	-11.44
▁alternativi	-11.4401
▁definitivă	-11.4406
▁98/	-11.4408
▁dispar	-11.441
▁designar	-11.4411
▁viața	-11.4411
▁anchetei	-11.4411
▁azul	-11.4414
▁legislație	-11.4414
▁llevarán	-11.4417
▁finanţării	-11.4419
▁descarga	-11.4421
▁observaţiile	-11.4422
▁comprender	-11.4422
▁succesul	-11.4425
▁transparent	-11.4425
▁operativo	-11.4426
rez	-11.4428
▁istoric	-11.4429
▁reţelele	-11.4429
▁diferă	-11.4431
▁navă	-11.4431
▁orientări	-11.4433
▁acțiuni	-11.4433
▁candidat	-11.4434
▁secolului	-11.4435
▁incluyan	-11.4436
▁latină	-11.4439
▁rezumat	-11.4441
▁mantenido	-11.4443
▁consolidar	-11.4443
▁precedentes	-11.4443
▁seae	-11.4444
▁individuală	-11.4446
▁introducere	-11.4449
▁confío	-11.4451
▁transposición	-11.4452
▁recunosc	-11.4453
▁noroc	-11.4454
▁energéticos	-11.4458
▁capitalul	-11.4459
▁multilaterale	-11.4459
▁standardizare	-11.446
▁avute	-11.4471
om	-11.4472
▁cartea	-11.4473
▁utile	-11.4474
▁începerea	-11.4476
▁peşte	-11.4482
tive	-11.4482
▁critică	-11.4482
tis	-11.4483
▁recunoaştere	-11.4483
pp	-11.4486
▁explicit	-11.449
▁alocat	-11.4492
▁erradicación	-11.4492
medi	-11.4494
tare	-11.4494
gur	-11.4497
▁índice	-11.4504
▁basadas	-11.4509
▁permanecer	-11.4511
▁delito	-11.4512
▁stockholm	-11.4513
▁ártico	-11.4513
▁circulaţia	-11.4513
▁educaţia	-11.4513
▁detener	-11.4513
▁inferiores	-11.4514
▁cărți	-11.4514
▁complemento	-11.4518
▁înregistrată	-11.452
▁decidă	-11.452
▁descărcare	-11.4521
▁extranjero	-11.4525
▁controlate	-11.453
▁țării	-11.4531
▁respectivos	-11.4532
▁liberalizarea	-11.4532
▁104	-11.4533
▁77/388/	-11.4534
▁democraţilor	-11.4534
▁enseñanza	-11.4534
▁explicaciones	-11.4535
▁transportator	-11.4536
eron	-11.4536
▁planeta	-11.4536
▁set	-11.4541
▁urmată	-11.4541
▁maternitate	-11.4542
▁diferenţe	-11.4542
▁dia	-11.4543
▁viajar	-11.4545
▁obstacole	-11.4545
▁treptat	-11.4546
▁atâta	-11.4553
▁cetăţean	-11.4554
▁datorează	-11.4554
▁newcastle	-11.4554
▁palestina	-11.4554
▁coordonate	-11.4555
▁apropiados	-11.4556
▁iată	-11.4557
▁ciudad	-11.4559
ătoare	-11.4562
▁oro	-11.4562
prim	-11.4563
▁gra	-11.4564
▁propiedades	-11.4565
▁flexible	-11.4566
▁garantate	-11.4573
▁ușor	-11.4575
▁unanimidad	-11.4575
▁entren	-11.4576
▁comportament	-11.4578
▁propriilor	-11.4582
(9)	-11.4582
▁medic	-11.4583
▁20%	-11.4583
▁atitudine	-11.4583
▁12.	-11.4583
▁negociat	-11.4584
▁întregului	-11.4585
▁agricultori	-11.4587
▁pudieran	-11.4588
▁douăzecea	-11.4596
▁satélite	-11.4596
▁2007-2013	-11.4596
▁guverne	-11.4596
▁cauzat	-11.4597
▁comparto	-11.4598
▁aeronave	-11.4598
▁tractores	-11.4599
▁poziție	-11.4599
▁companie	-11.4599
▁kilograme	-11.46
▁liberales	-11.4603
▁ambalare	-11.4604
▁negativa	-11.4604
▁lucrărilor	-11.4607
▁nombramiento	-11.4608
▁creditelor	-11.4611
uș	-11.4614
▁pat	-11.4615
▁propun	-11.4615
▁quince	-11.4616
▁repetir	-11.4618
▁reuniuni	-11.4619
▁concentreze	-11.4619
▁echilibrul	-11.4621
▁colectiv	-11.4627
▁esperan	-11.4628
▁fenómeno	-11.4629
▁eliminate	-11.4629
▁angajaţi	-11.4632
▁stimulente	-11.4637
▁aditivi	-11.4641
ță	-11.4643
▁urmări	-11.4645
burg	-11.4646
▁elaborará	-11.4653
▁înaintate	-11.4655
cont	-11.4657
▁identitatea	-11.4657
▁64/432/	-11.4658
▁îndeosebi	-11.4658
▁avantaj	-11.4658
▁vivir	-11.4658
▁componenţa	-11.4658
67/	-11.4659
î	-11.4661
▁deşeurile	-11.4661
▁deseamos	-11.4662
▁excluse	-11.4663
ler	-11.4663
▁sursele	-11.4667
tivo	-11.4669
▁médica	-11.467
▁sentencia	-11.4671
▁desafío	-11.4671
▁logro	-11.4671
▁supliment	-11.4671
▁bancario	-11.4671
▁seară	-11.4674
▁expedientes	-11.4674
ible	-11.4677
▁abstenido	-11.4679
▁dispoziție	-11.4679
▁afacerilor	-11.4683
▁confidenţiale	-11.4683
▁finalizarea	-11.4685
▁valoración	-11.4687
▁aceeași	-11.4687
▁reciba	-11.4691
▁contul	-11.4691
▁localizare	-11.4691
▁cartofi	-11.4694
▁noche	-11.4699
▁precizat	-11.4699
▁hrana	-11.47
▁siento	-11.47
▁(*)	-11.4702
▁reconocidos	-11.4703
▁provocărilor	-11.4704
izado	-11.4704
▁pakistan	-11.4706
▁prevenirii	-11.4707
▁operativos	-11.4709
▁comentarii	-11.4713
▁oportunitatea	-11.4714
▁inovarea	-11.4716
▁gradual	-11.4718
▁rezervele	-11.472
▁búsqueda	-11.4721
▁cunoştinţă	-11.4721
▁swift	-11.4721
fida	-11.4721
▁corregir	-11.4724
▁remolques	-11.4725
▁autorizaţi	-11.4726
▁1995.	-11.4726
▁rapoartelor	-11.4726
▁mental	-11.4727
▁preguntar	-11.4727
▁obicei	-11.4733
▁máquinas	-11.4733
▁envasado	-11.4734
▁adresat	-11.4737
▁pr	-11.474
.3	-11.474
▁bienvenida	-11.4742
▁consecință	-11.4742
▁restituiri	-11.4744
▁acogerse	-11.4745
▁corta	-11.4747
▁cambiado	-11.4749
țiile	-11.4749
▁ofrezca	-11.4752
▁cotelor	-11.4753
▁cifrele	-11.4761
▁guvernanță	-11.4763
▁pacífico	-11.4763
▁solicitată	-11.4766
sal	-11.4766
▁ceară	-11.4772
▁transmitirá	-11.4776
▁coordinada	-11.4776
▁susţinere	-11.478
▁presidentes	-11.4781
▁beneficiile	-11.4783
▁monedă	-11.4784
▁londres	-11.4784
▁împrumuturi	-11.4785
▁minimum	-11.4786
▁accentul	-11.4786
▁interzică	-11.4788
▁comparabile	-11.4789
▁mână	-11.4791
▁interoperabil	-11.4793
▁enviará	-11.4798
▁mantenerse	-11.48
▁ajută	-11.4802
▁asi	-11.4805
▁împiedice	-11.4805
▁amenazas	-11.4819
▁2012.	-11.4822
▁obligate	-11.4825
▁achiziţii	-11.4826
▁elaborează	-11.4826
▁medicina	-11.4827
▁especificar	-11.4829
ora	-11.4829
▁enunţate	-11.4829
▁societății	-11.4834
▁datoriei	-11.4836
▁declare	-11.4838
▁manifestar	-11.4838
▁escrita	-11.4839
▁64	-11.484
▁foc	-11.4843
▁invita	-11.4844
▁arte	-11.4845
▁consonancia	-11.4847
▁încurajează	-11.4847
▁legislatura	-11.4847
▁acompañados	-11.485
▁prácticamente	-11.485
▁reciben	-11.4854
▁notificat	-11.4854
▁113	-11.486
▁comentario	-11.4861
▁asigurat	-11.4867
▁extern	-11.4869
▁subliniem	-11.4869
▁medicamentoase	-11.4869
▁quinto	-11.4869
▁sumei	-11.4869
▁vizat	-11.4872
iile	-11.4873
▁tehnologice	-11.4876
▁llega	-11.4877
▁asuma	-11.4878
▁scădere	-11.4878
▁unităţii	-11.4878
forma	-11.4879
▁extrema	-11.4879
▁luxemburgo	-11.488
▁construcţii	-11.4881
▁empresario	-11.4884
▁valabilă	-11.4886
▁culturii	-11.4887
▁substanţei	-11.4887
▁exclude	-11.4889
▁stimula	-11.4889
▁păsări	-11.489
▁conciliere	-11.489
▁utilizând	-11.489
▁ouăle	-11.4891
▁causado	-11.4892
▁argumentos	-11.4893
▁salvgardare	-11.4894
tim	-11.4895
▁aveţi	-11.4895
▁aparţine	-11.4896
▁pavilionul	-11.4899
▁antiguos	-11.4899
▁rezoluției	-11.4901
▁partenerilor	-11.4903
▁implicados	-11.4905
▁2005.	-11.4907
▁fructelor	-11.4909
▁înlocuirea	-11.491
▁echilibrat	-11.491
▁apăra	-11.4911
▁păcii	-11.4911
▁altceva	-11.4911
▁viitorului	-11.4917
▁impuestas	-11.4922
▁val	-11.4927
▁curente	-11.4929
▁cotización	-11.4933
▁gravedad	-11.4933
▁portugaliei	-11.4933
▁insistir	-11.4937
▁comunice	-11.4942
▁operaţiune	-11.4943
▁păstra	-11.4943
▁deficit	-11.4949
▁activelor	-11.4952
▁estadounidenses	-11.4953
▁adquirir	-11.4954
▁ciudadanía	-11.4954
▁texas	-11.4954
▁viabilidad	-11.4955
▁azot	-11.4955
▁cif	-11.496
▁notificado	-11.4963
tate	-11.4968
▁crítica	-11.4968
▁fragment	-11.4974
▁imputa	-11.4975
▁turism	-11.4975
▁taiwan	-11.4976
▁prórroga	-11.4976
▁soi	-11.4976
▁crede	-11.4978
▁atribuite	-11.4986
▁nacionalidad	-11.4988
▁3;	-11.4992
▁incorporar	-11.4996
▁79	-11.4997
▁dezastre	-11.4997
▁1260/1999	-11.4997
▁detección	-11.4997
▁porcină	-11.4998
▁încheierii	-11.5
▁străine	-11.5001
▁potențial	-11.5005
▁10%	-11.5009
▁culturală	-11.5011
▁înlocuit	-11.5011
▁auditoría	-11.5012
▁licenţei	-11.5012
▁economiilor	-11.5018
▁sucede	-11.5019
▁embriones	-11.5019
▁comise	-11.502
▁favorabile	-11.502
▁conceptul	-11.5022
▁pacienţilor	-11.5023
bs	-11.5026
▁reveni	-11.5028
▁droguri	-11.5031
▁favorecer	-11.5038
▁cualificaciones	-11.5041
▁danemarca	-11.5041
▁eslovenia	-11.5041
▁tratando	-11.5044
▁votăm	-11.5044
rme	-11.5051
pos	-11.5051
rían	-11.5052
▁obligaţie	-11.5056
0/220/	-11.5059
▁crímenes	-11.5062
▁estableció	-11.5062
▁degresat	-11.5062
▁regulă	-11.5062
▁faciliteze	-11.5063
▁pu	-11.5063
▁contratantes	-11.5064
▁abordeze	-11.5068
grup	-11.5068
▁coincido	-11.5068
ismului	-11.5068
▁marinos	-11.5069
▁58	-11.507
▁reducida	-11.5072
▁vinculantes	-11.5073
ión	-11.5073
▁posibilităţile	-11.5074
▁3,5	-11.5078
▁introdusă	-11.5078
▁înscrie	-11.5079
▁reg	-11.5082
▁islam	-11.5084
▁digo	-11.5086
▁hogares	-11.5086
▁abusos	-11.5088
▁disfrutar	-11.509
▁reciproce	-11.5091
pin	-11.5091
şe	-11.5093
▁refieran	-11.5095
▁diversitatea	-11.5099
▁verifică	-11.5103
▁sostenibles	-11.5105
▁consolidăm	-11.5106
▁semestre	-11.5106
▁caprine	-11.5106
▁oficiul	-11.5108
▁justiție	-11.511
▁implicadas	-11.511
cursul	-11.5113
▁tarifară	-11.5113
▁sec	-11.5114
confidencialidad	-11.5114
▁provocado	-11.5117
ități	-11.5119
▁pondrá	-11.512
▁voturile	-11.512
▁hi	-11.5121
▁defini	-11.5123
▁organizada	-11.5126
▁1291/2000	-11.5128
▁profesión	-11.5128
▁limiteze	-11.5129
▁ka	-11.5129
▁oído	-11.513
▁compatibles	-11.5132
▁demers	-11.5132
▁democrat	-11.5135
▁strâns	-11.514
▁conferi	-11.5141
▁deschidere	-11.5141
▁guvernare	-11.5142
▁credibilitatea	-11.5142
▁precis	-11.5148
▁aprendizaje	-11.5149
▁especulación	-11.5149
▁marruecos	-11.5149
▁obvio	-11.5149
▁satelit	-11.5149
▁siembra	-11.5149
▁abordează	-11.515
▁perfectamente	-11.515
tivos	-11.5154
▁exerciţiul	-11.5154
▁harta	-11.5155
▁sitio	-11.5156
▁sensibil	-11.5156
▁relaţi	-11.5157
▁nocivos	-11.5158
▁liderii	-11.516
▁eurosistema	-11.5162
▁eurostat	-11.5162
▁solicitări	-11.5163
▁usuario	-11.5164
▁suministros	-11.5165
▁aporta	-11.5168
▁elevados	-11.5169
▁inovării	-11.5171
▁vicepresidenta	-11.5171
▁folleto	-11.5171
▁catastrofe	-11.5171
▁arriba	-11.5171
▁resultante	-11.5173
▁eficienţă	-11.5174
mine	-11.5175
▁oferind	-11.5175
▁fácilmente	-11.5177
▁publica	-11.5183
93/	-11.5183
val	-11.5184
▁războiul	-11.5186
▁discuţiile	-11.5189
sí	-11.5192
▁inundaciones	-11.5193
▁surselor	-11.5195
▁clases	-11.5198
▁conflicte	-11.5199
▁libertăţilor	-11.52
▁mantenga	-11.5201
ngl	-11.5205
cto	-11.5213
▁70/524/	-11.5215
▁impozit	-11.5217
▁existent	-11.5226
▁refiera	-11.5226
▁comparables	-11.523
▁estancia	-11.523
▁păstreze	-11.5237
▁îndoieli	-11.5237
▁adjunta	-11.5239
▁funcionar	-11.5241
▁limbi	-11.5243
▁compatibile	-11.5245
▁formato	-11.5245
aje	-11.5245
▁salvaguardar	-11.5246
▁eveniment	-11.5248
3.	-11.5249
▁bugete	-11.5249
▁observatorio	-11.5249
▁sesiune	-11.5249
▁suprimirá	-11.5251
▁préstamo	-11.5253
▁francesa	-11.5253
▁accelera	-11.5256
▁aproba	-11.5258
▁reacţie	-11.526
▁extracción	-11.526
▁multiplicación	-11.526
94/	-11.5261
▁exportar	-11.5262
▁prețurilor	-11.5263
▁aceleia	-11.5263
▁aprobării	-11.5267
▁transferate	-11.5268
▁subiecte	-11.5268
2008	-11.5271
ológica	-11.5272
▁contractuale	-11.5273
▁solicitările	-11.5274
▁viol	-11.5274
▁plătită	-11.5277
▁autorizaţiile	-11.528
▁recogidas	-11.5281
▁afgan	-11.5282
▁(24)	-11.5282
▁libremente	-11.5289
▁61	-11.5291
▁ge	-11.5293
▁introducido	-11.5297
▁ape	-11.5298
▁concordanţă	-11.5304
▁iraq	-11.5304
▁64/433	-11.5304
▁titularului	-11.5306
control	-11.531
▁reclama	-11.5311
▁basados	-11.5311
▁mobilitatea	-11.5314
▁ambalaje	-11.5318
▁fiu	-11.5319
▁junta	-11.532
▁afectará	-11.5321
▁legalmente	-11.5321
▁testele	-11.5323
▁cerdos	-11.5323
▁acid	-11.5323
▁vie	-11.5324
▁formalidades	-11.5326
aria	-11.5329
▁apărea	-11.5331
▁residentes	-11.5332
▁terminale	-11.5334
▁cauzele	-11.5336
31	-11.5337
▁agenţilor	-11.5337
▁feg	-11.5338
▁subraya	-11.5339
▁testelor	-11.534
▁dibujo	-11.5342
▁întrebările	-11.5342
▁rezervelor	-11.5343
▁tac	-11.535
▁comparaţie	-11.535
▁modos	-11.5352
▁observaţii	-11.5353
▁operatorul	-11.5354
▁600	-11.5358
▁2050	-11.5358
▁electronică	-11.5358
▁completarea	-11.5359
▁daño	-11.5363
▁tanta	-11.5364
▁situados	-11.5364
▁recoger	-11.5365
▁asignado	-11.5366
▁2007.	-11.5367
▁excesiv	-11.5369
▁instrucciones	-11.5371
▁funcţiune	-11.5371
▁gue	-11.5373
▁pragul	-11.5373
ty	-11.5373
siones	-11.5374
▁croația	-11.5375
▁dirigir	-11.5376
cum	-11.5378
▁dio	-11.5379
sem	-11.538
▁sancțiuni	-11.5381
▁debida	-11.5386
▁dispositivo	-11.5387
ato	-11.5388
▁arma	-11.5389
▁acţionăm	-11.5393
▁obţinută	-11.5394
ești	-11.5397
▁presupun	-11.5397
▁busca	-11.5398
▁vieții	-11.54
zu	-11.5401
▁pese	-11.5402
▁cuáles	-11.5403
▁închise	-11.5404
▁protejată	-11.5404
▁or	-11.5406
▁avantajele	-11.5407
▁diagnostic	-11.5408
▁banda	-11.5412
▁provine	-11.5413
▁preservar	-11.5414
▁intervenţia	-11.5416
▁producție	-11.5422
▁interzisă	-11.5422
aș	-11.5424
dura	-11.5425
ţiei	-11.5426
▁posteriores	-11.5426
itățile	-11.5431
▁bazele	-11.5433
▁echipament	-11.5436
▁pl	-11.5436
▁coopereze	-11.5438
▁radiodifusión	-11.5438
▁definească	-11.5439
▁reparación	-11.5439
▁separación	-11.5439
▁sunteţi	-11.5439
▁aparţinând	-11.544
▁humanidad	-11.544
▁fundamento	-11.544
▁medicinale	-11.544
▁exploatării	-11.5442
▁fuego	-11.5443
▁investi	-11.5443
▁încurajeze	-11.5443
▁admiterea	-11.5448
▁rambursare	-11.5452
▁extins	-11.546
▁monopol	-11.5461
▁ambición	-11.5461
▁reflecte	-11.5461
▁soviética	-11.5461
▁86/36	-11.5461
▁adapteze	-11.5461
▁remuneración	-11.5462
eg	-11.5465
▁folosim	-11.5468
▁stocurile	-11.5469
▁enormemente	-11.5469
▁consecințele	-11.5469
▁tibetan	-11.5469
▁vize	-11.5471
▁llegue	-11.5472
▁recogidos	-11.5474
▁expedir	-11.5476
▁înţelegere	-11.548
▁añadirán	-11.5482
▁aprovizionarea	-11.5484
▁intensificare	-11.5487
▁familiei	-11.5489
▁considerabile	-11.5491
▁denominados	-11.5491
ani	-11.5492
▁marii	-11.55
ard	-11.5504
▁desnatada	-11.5506
▁întocmeşte	-11.5506
▁llamado	-11.5508
▁cre	-11.551
nia	-11.5511
sl	-11.5516
▁intensificar	-11.5516
▁suponer	-11.5518
▁adquirido	-11.5523
▁exigencia	-11.5523
▁încetarea	-11.5523
▁populară	-11.5525
▁guvernanța	-11.5529
▁alemán	-11.5529
▁importului	-11.5535
▁don	-11.5538
▁organizată	-11.5539
▁viziune	-11.5541
▁examinării	-11.5544
▁discriminarea	-11.5545
▁verificările	-11.5547
▁anexat	-11.5548
▁garantizada	-11.5549
▁bătălia	-11.5552
▁detaliu	-11.5552
▁faliment	-11.5552
▁structurile	-11.5553
▁isla	-11.5562
▁emiterea	-11.5563
▁avantaje	-11.5565
▁angajamentelor	-11.5569
▁asumat	-11.5573
▁ocupe	-11.5574
▁iniciado	-11.5574
▁cuprinzător	-11.5575
▁expuse	-11.558
▁calculată	-11.5584
▁desarrollado	-11.5588
▁parteneriatului	-11.5592
61	-11.5593
▁ko	-11.5594
▁eliberării	-11.5597
▁populația	-11.5597
▁riqueza	-11.5597
▁pensión	-11.5597
▁seminal	-11.5599
▁regulan	-11.56
▁situat	-11.5601
▁reexport	-11.5603
▁rambursarea	-11.5609
▁dispună	-11.5609
▁anterioridad	-11.561
▁crime	-11.5611
▁importuri	-11.5612
▁cm	-11.5612
▁repetat	-11.5614
▁descrito	-11.5614
▁llevada	-11.5615
▁corre	-11.5616
▁intracomunitare	-11.5616
▁comunica	-11.562
▁ajung	-11.562
▁protejării	-11.562
▁redacción	-11.562
▁securității	-11.562
▁substanţa	-11.562
▁proporcional	-11.5626
▁ţinut	-11.5628
sto	-11.5628
▁livrarea	-11.563
tuvieron	-11.5631
▁uscate	-11.5631
▁aceites	-11.5633
rra	-11.5633
▁organe	-11.5634
▁secret	-11.5634
▁denumire	-11.5635
▁perfect	-11.5636
▁monetarios	-11.5637
▁exija	-11.5637
▁grasa	-11.5638
▁adevărul	-11.5641
▁pacífica	-11.5643
▁cáncer	-11.5643
▁guinea	-11.5643
▁rechazo	-11.5643
▁tehnologia	-11.5643
▁dióxido	-11.5644
▁deosebire	-11.5644
▁utilă	-11.5644
▁acelui	-11.5647
▁expunerea	-11.5647
▁admite	-11.565
▁frontiere	-11.5651
▁periodistas	-11.5651
comp	-11.5652
▁următoarei	-11.5652
▁ki	-11.5653
▁formulate	-11.5654
▁interesat	-11.5657
parte	-11.5662
▁5%	-11.5663
prinsă	-11.5665
▁lotes	-11.5665
▁tir	-11.5666
▁etiquetas	-11.5667
▁prejudicii	-11.5667
▁strânse	-11.5667
▁acoperirea	-11.5668
nţei	-11.567
▁centrarse	-11.5671
▁caída	-11.5671
▁maghiară	-11.5671
▁riscă	-11.5674
▁pres	-11.5679
▁ferme	-11.568
▁expuestos	-11.5682
▁ambiciosos	-11.5685
▁referendum	-11.5687
▁felicito	-11.5687
▁78/66	-11.569
▁instanţă	-11.569
cic	-11.569
▁realizăm	-11.569
▁fizic	-11.5692
▁diplomas	-11.5693
▁perjudiciales	-11.5693
▁fapte	-11.5695
▁publicitatea	-11.5699
▁mobilitate	-11.5703
▁exhaustivo	-11.5703
74	-11.5708
▁comisarului	-11.5712
▁nace	-11.5712
▁rúbrica	-11.5713
▁vietnam	-11.5713
▁distanţă	-11.5713
▁pensie	-11.5713
▁imagen	-11.5713
▁producția	-11.5713
▁ur	-11.5716
▁piloto	-11.572
▁asistir	-11.5722
▁publicar	-11.5724
▁flexibil	-11.5725
▁abuz	-11.5729
▁sometida	-11.573
▁permitem	-11.5735
▁estimează	-11.5736
▁correspondencia	-11.5736
▁cunoscute	-11.5737
▁aumentando	-11.5738
▁bancare	-11.5739
▁publicado	-11.574
▁tehnologie	-11.5742
▁pal	-11.5743
▁bu	-11.5744
*	-11.5746
▁dispozitivele	-11.5749
28	-11.575
▁básica	-11.5751
▁voluntaria	-11.5751
▁básico	-11.5754
000	-11.5755
▁comunicării	-11.5756
▁espectro	-11.5759
▁cualesquiera	-11.5759
ărilor	-11.5762
▁pădurilor	-11.5762
▁partidele	-11.5769
▁0,5	-11.577
▁roţi	-11.5773
▁uniformes	-11.5774
▁departamentos	-11.5777
pres	-11.5777
▁procesele	-11.5778
▁potenţialul	-11.5779
sgraciadamente	-11.5782
▁regenerabilă	-11.5782
▁semnarea	-11.5785
▁delante	-11.5786
▁garantizando	-11.5787
▁tehnici	-11.5787
▁deseori	-11.5787
▁pronunciado	-11.579
▁bur	-11.5792
▁africana	-11.5793
▁vorbitor	-11.5793
▁deputații	-11.5798
ivo	-11.5799
▁mg	-11.58
bre	-11.5802
▁ventaja	-11.5803
▁săditor	-11.5806
▁canje	-11.5806
▁alentar	-11.5808
▁misiones	-11.581
▁im	-11.5813
▁obstacol	-11.5813
▁entiende	-11.5818
▁respete	-11.5818
▁depunere	-11.582
puesta	-11.5821
▁temporales	-11.5822
▁sólido	-11.5824
▁transmită	-11.5825
▁fra	-11.5826
▁apreciez	-11.5829
▁exámenes	-11.5829
▁legătura	-11.5829
▁satisfăcător	-11.5829
▁oportuna	-11.5831
▁grijă	-11.5831
▁controla	-11.5832
▁sprijinului	-11.5833
▁obţinerii	-11.5834
▁fibre	-11.5834
▁competitivă	-11.5835
▁simt	-11.5835
▁capabilă	-11.5835
▁simplifica	-11.5837
ología	-11.5839
▁evitarea	-11.5842
▁insertará	-11.5842
▁amidon	-11.5842
guvernamentale	-11.5843
▁încântată	-11.5843
▁voluntar	-11.5845
▁denumiri	-11.5848
▁dure	-11.5848
▁boala	-11.5853
▁cipru	-11.5853
uz	-11.5854
▁paralel	-11.5854
▁vender	-11.5854
▁conţinute	-11.5855
▁subvenţii	-11.5855
▁retrase	-11.5855
▁prestaţii	-11.5855
▁negocia	-11.5856
▁ciertamente	-11.5856
▁opinie	-11.5859
▁demandas	-11.5861
▁adoptados	-11.5865
▁maroc	-11.5871
▁+	-11.5872
▁sensibles	-11.5873
▁basta	-11.5874
▁vreun	-11.5875
▁extensión	-11.5876
▁95/46/	-11.5876
▁decenii	-11.5878
▁sencillamente	-11.5879
▁originarias	-11.5883
democrat	-11.5886
▁socialist	-11.5893
▁provocate	-11.5894
▁hoja	-11.5895
▁ambalaj	-11.5898
▁irlandés	-11.59
▁compartir	-11.59
▁amănuntul	-11.59
▁substanţial	-11.5901
▁candidate	-11.5902
▁false	-11.5904
▁deșeurilor	-11.5907
▁piețe	-11.5909
44	-11.5912
▁conduc	-11.5912
▁aspectelor	-11.5914
▁aud	-11.5918
▁centrele	-11.5919
▁declarații	-11.592
▁accent	-11.592
▁dictámenes	-11.5923
▁cesión	-11.5924
▁concluzii	-11.5925
▁chile	-11.5926
▁închei	-11.5929
▁investițiile	-11.593
▁realizan	-11.593
▁net	-11.593
▁inicialmente	-11.593
▁llevando	-11.5931
▁consideraciones	-11.5931
▁colaborar	-11.5931
▁tranzacţiilor	-11.5931
terinstitucional	-11.5933
▁regimurilor	-11.5936
▁protegida	-11.5942
▁reconocida	-11.5942
▁operator	-11.5943
▁textil	-11.5946
▁importa	-11.5947
▁influenţă	-11.5947
▁participării	-11.5954
▁desarrollados	-11.5954
▁bordul	-11.5958
▁hechas	-11.5962
▁multilaterales	-11.5962
▁vemos	-11.5966
stat	-11.5967
▁ceilalţi	-11.5971
▁posesión	-11.5971
▁autorizeze	-11.5971
▁conexe	-11.5972
▁concesiones	-11.5973
▁malla	-11.5973
▁reprezentativ	-11.5976
▁compras	-11.5983
▁reflejar	-11.5983
▁excluidos	-11.5984
▁laptele	-11.599
▁agent	-11.599
▁apropie	-11.5991
▁antelación	-11.5995
▁gândesc	-11.5995
▁propagación	-11.5995
▁estrictamente	-11.5997
▁procedează	-11.5997
clu	-11.5999
▁situadas	-11.5999
▁favorables	-11.5999
▁omologării	-11.6001
▁federación	-11.6002
▁coordonată	-11.6002
▁fitosanitar	-11.6003
▁eficacitatea	-11.6005
▁familiile	-11.6006
▁numirea	-11.6008
▁utilizatorii	-11.601
▁decisiv	-11.6012
▁tehnologiei	-11.6012
▁ataque	-11.6014
▁studiile	-11.6018
▁ninguno	-11.6019
▁debatido	-11.6019
▁acompañamiento	-11.6019
▁ancheta	-11.6019
iéndose	-11.602
▁departamente	-11.6022
▁trámites	-11.6023
▁echipamentul	-11.6024
▁trecem	-11.6026
▁golpe	-11.6026
▁dicen	-11.6028
▁repetate	-11.6029
▁imagine	-11.6029
▁vânzării	-11.6029
▁balcanii	-11.6031
▁imagina	-11.6032
▁furnizorii	-11.6032
▁unilateral	-11.6032
▁întregi	-11.6034
▁porc	-11.6034
▁extinse	-11.6035
▁celebrará	-11.6037
gel	-11.6037
▁fronterizos	-11.6039
▁separată	-11.604
▁justificada	-11.6041
▁aniversări	-11.6043
▁decidió	-11.6043
▁închisoare	-11.6043
▁ocde	-11.6046
▁fal	-11.6047
90/	-11.6047
▁solicitada	-11.6052
▁urbane	-11.6054
ste	-11.6055
▁intelectuală	-11.6056
▁buenos	-11.6057
tica	-11.6057
▁adăuga	-11.6057
▁ține	-11.6061
▁agraria	-11.6061
▁flota	-11.6061
▁seamos	-11.6063
▁periodice	-11.6066
▁disminución	-11.6066
▁primordial	-11.6066
▁seguimos	-11.6066
▁înaltul	-11.6068
▁totales	-11.607
▁estudiantes	-11.607
ţiile	-11.6073
▁experţii	-11.6074
▁puţine	-11.6076
▁susţină	-11.6077
▁mobile	-11.6083
▁clădirilor	-11.6084
▁semne	-11.6084
▁fresca	-11.6085
iva	-11.6086
▁detalle	-11.6087
▁indicând	-11.6087
▁provocat	-11.609
▁atómica	-11.609
▁solvit	-11.609
▁suerte	-11.6091
▁precisión	-11.6091
▁foloseşte	-11.6091
▁adevărată	-11.6096
illo	-11.6098
▁prioritățile	-11.6098
▁negativos	-11.6107
rc	-11.6108
▁comisari	-11.6108
▁existentă	-11.6111
▁respins	-11.6114
▁atañe	-11.6115
▁persecución	-11.6115
▁revisado	-11.6115
▁președinției	-11.6115
▁sobrepase	-11.6116
▁fiables	-11.6117
▁obligar	-11.6118
▁activități	-11.6124
.2	-11.6125
▁numără	-11.6125
ide	-11.6126
▁untului	-11.6128
▁abrogare	-11.613
▁legumelor	-11.6135
▁tractor	-11.6135
proporcionalidad	-11.6136
▁abordate	-11.6136
▁tarifar	-11.6137
▁igienă	-11.6139
▁vínculos	-11.614
▁spaţiului	-11.6141
▁legitimidad	-11.6141
▁inc	-11.6144
oci	-11.6146
▁călătorie	-11.6147
▁reforzada	-11.615
▁declar	-11.6152
▁redresarea	-11.6155
▁compatible	-11.6158
▁aur	-11.616
▁naturii	-11.6163
▁falsificación	-11.6163
▁porumb	-11.6164
▁restricţiile	-11.6165
▁dificultăţile	-11.6165
atul	-11.6166
▁semi	-11.6171
▁preocupări	-11.6172
▁pronunciará	-11.6173
▁constat	-11.6175
▁acțiunile	-11.6177
▁recipiente	-11.618
▁abuso	-11.6183
▁sencilla	-11.6185
gas	-11.6186
▁fukushima	-11.6187
▁aerieni	-11.6187
▁comprobaciones	-11.6187
▁incorporación	-11.6188
▁fuertes	-11.6188
▁nereguli	-11.619
▁suedeză	-11.619
▁comerciali	-11.619
▁energéticas	-11.6192
▁informados	-11.6194
▁participado	-11.6196
▁identificat	-11.6197
▁mărci	-11.6198
san	-11.6199
▁certificarea	-11.62
▁efectivas	-11.62
▁observado	-11.6204
▁geo	-11.6204
▁grande	-11.6205
▁servi	-11.6206
▁denominada	-11.6211
▁independenţa	-11.6212
lie	-11.6213
▁armate	-11.6213
▁emplear	-11.6214
▁negociado	-11.6215
▁copilului	-11.6216
▁excesiva	-11.6216
but	-11.622
▁ruido	-11.622
▁depun	-11.6221
▁constructivo	-11.6222
▁derogar	-11.6222
▁profunda	-11.6224
▁interesată	-11.6225
▁elementelor	-11.6229
▁limitarse	-11.6229
▁considerada	-11.623
▁austriei	-11.6236
▁evidenţă	-11.6236
▁funcţioneze	-11.6236
▁recunoscător	-11.6236
tie	-11.6241
▁violenței	-11.6242
▁umbrales	-11.6243
▁observ	-11.6244
▁pasivos	-11.6244
mamente	-11.6246
39	-11.6246
▁terminales	-11.6247
▁dispozitive	-11.6252
▁satisfac	-11.6253
▁poluarea	-11.6253
▁creen	-11.6254
▁renovable	-11.6256
▁embalajes	-11.6256
▁pilot	-11.6257
▁demonstreze	-11.626
▁dunării	-11.626
▁misiunea	-11.6262
▁darse	-11.6265
▁irlandez	-11.6265
▁informal	-11.6265
▁bas	-11.6266
59	-11.628
▁obtenida	-11.628
▁automobile	-11.6283
rum	-11.6283
▁urgenţa	-11.6285
▁învăţământ	-11.6285
▁1998.	-11.6286
▁administraţia	-11.6286
▁stânga	-11.6288
▁aduaneros	-11.6288
▁investiga	-11.629
▁ascultat	-11.6292
▁oportunități	-11.6295
▁muestran	-11.6296
▁desequilibrios	-11.6298
▁ritmo	-11.6298
▁nava	-11.6299
▁excesive	-11.6301
▁cuadros	-11.6301
▁fuese	-11.6301
▁îmbunătăţirii	-11.6305
icos	-11.6307
▁jurisdiccional	-11.6309
▁800/1999	-11.631
▁întocmite	-11.6312
▁interesaţi	-11.6317
▁parlamentară	-11.632
▁evaluate	-11.6322
stas	-11.6324
▁transportatori	-11.6324
▁revizuite	-11.6325
▁precizate	-11.6328
▁recoge	-11.633
▁men	-11.6331
▁furnizare	-11.6331
▁miedo	-11.6332
▁croaţia	-11.6334
▁exenciones	-11.6334
▁serioasă	-11.6334
▁opino	-11.6334
▁volum	-11.6334
▁ovina	-11.6335
▁navigaţie	-11.6341
▁efortul	-11.6343
▁ofertelor	-11.6343
▁meta	-11.6343
63	-11.6344
▁despidos	-11.6344
scu	-11.6345
▁comunităţile	-11.6346
▁îmbunătățiri	-11.6346
▁pocas	-11.6352
▁îmbunătăţiri	-11.6353
▁vacuna	-11.6354
▁fábrica	-11.6354
▁joi	-11.6355
▁actori	-11.6356
▁franceses	-11.6359
▁mişcare	-11.6359
▁licenţa	-11.6359
▁trecerea	-11.6359
▁entităţi	-11.6361
vest	-11.6363
▁votaciones	-11.6363
▁ind	-11.6365
▁solidă	-11.6366
▁ten	-11.6366
lado	-11.6366
▁comunicat	-11.6369
▁estipula	-11.6369
▁encargados	-11.6371
▁puerta	-11.6379
▁elaborados	-11.6379
▁líder	-11.638
▁pilar	-11.6381
67	-11.6382
▁ilustra	-11.6384
▁73/23	-11.6384
▁canare	-11.6384
▁zero	-11.6384
▁alegro	-11.6385
▁saldo	-11.6388
▁dibujos	-11.6391
izados	-11.6392
▁encaminadas	-11.6392
34	-11.6394
▁frontierelor	-11.6394
▁142	-11.64
▁anticipado	-11.6401
▁distrugerea	-11.6401
▁admitere	-11.6403
▁lemn	-11.6403
▁optar	-11.6404
ts	-11.6404
▁autores	-11.6406
").	-11.6407
▁integr	-11.6408
▁atomice	-11.6408
▁89/662/	-11.6408
▁codecisión	-11.6409
▁organizare	-11.641
▁desigualdades	-11.6411
▁confi	-11.6411
▁qui	-11.642
▁mejorado	-11.6421
▁intermediare	-11.6421
▁sporite	-11.6423
nat	-11.6425
▁estatal	-11.6425
▁dirigido	-11.643
▁tonelada	-11.6432
▁transacción	-11.6433
▁ultraperiférica	-11.6433
▁altui	-11.6434
▁calculado	-11.6436
pri	-11.6439
▁et	-11.6442
71	-11.6444
▁trimiterea	-11.6444
▁desfăşura	-11.6447
▁1964	-11.6447
▁aprecia	-11.645
▁conductor	-11.645
▁îngrijire	-11.645
▁ecológico	-11.6453
▁aflată	-11.6455
▁reclamaciones	-11.6459
▁grele	-11.6459
▁participaciones	-11.646
▁eliminării	-11.6462
▁cerem	-11.6462
▁religiosa	-11.6463
▁înmulţire	-11.6463
▁organizării	-11.6465
▁cerințele	-11.6467
▁aéreos	-11.6468
▁conflictelor	-11.647
izada	-11.6471
▁comentariile	-11.6473
▁privadas	-11.6475
▁segment	-11.6477
ificar	-11.6479
▁ensayo	-11.6479
▁rezonabile	-11.6481
▁rec	-11.6482
▁afirm	-11.6483
▁vamă	-11.6483
▁cancún	-11.6483
▁desembarque	-11.6483
▁impresia	-11.6483
▁poniendo	-11.6483
▁străinătate	-11.6483
▁conversie	-11.6483
▁juventud	-11.6485
▁veterinară	-11.6486
▁respectivas	-11.6487
▁tehnologică	-11.6488
▁educaţiei	-11.649
ministru	-11.6492
▁pura	-11.6493
▁statisticilor	-11.6497
▁macro	-11.65
▁contribuție	-11.6508
▁religie	-11.6508
▁intentando	-11.6511
▁calendarul	-11.6511
veți	-11.6515
ţa	-11.6517
▁poziţiile	-11.652
▁întâlnit	-11.6522
nţii	-11.6524
▁testare	-11.6527
q	-11.6529
▁formularea	-11.6533
▁evaluează	-11.6533
▁soluţia	-11.6533
▁yugoslava	-11.6533
▁dificultate	-11.6534
▁baltice	-11.6536
▁imediate	-11.6537
▁consta	-11.6538
▁poziţii	-11.6541
▁masiva	-11.6544
▁comercializados	-11.6546
▁reguladoras	-11.6552
▁patentes	-11.6553
▁niño	-11.6556
▁europenii	-11.6557
▁interveni	-11.6558
▁directas	-11.6558
▁transportista	-11.6558
▁atmósfera	-11.6559
▁jueves	-11.6559
▁repercusión	-11.6559
▁sânge	-11.6559
▁clauze	-11.6565
▁gu	-11.6565
▁celebro	-11.6565
▁vizite	-11.6566
▁continúa	-11.6573
▁sepa	-11.6575
▁fabrica	-11.6577
▁vină	-11.6577
▁entitate	-11.6579
▁merecen	-11.6581
▁contactos	-11.6581
▁presiunea	-11.6582
▁critici	-11.6582
▁racional	-11.6583
▁domni	-11.6584
▁incidencia	-11.6584
▁razonables	-11.6584
▁exactitud	-11.6584
▁iso	-11.6584
▁cuentan	-11.6585
▁colectate	-11.6587
▁comercializarse	-11.6588
▁originar	-11.6589
▁recunoaştem	-11.6589
▁populaţie	-11.6592
var	-11.6594
▁crimen	-11.6596
▁admitidos	-11.6596
▁excluderea	-11.6599
▁experiencias	-11.6601
▁stabilizare	-11.6603
/98	-11.6606
▁detallado	-11.6606
▁preocupante	-11.6608
▁cunosc	-11.661
▁parlamentarios	-11.6612
▁combateri	-11.6612
▁ata	-11.6614
▁otorga	-11.6618
▁rânduri	-11.662
▁realizando	-11.6621
▁definitive	-11.6622
▁voturilor	-11.6623
▁notificar	-11.6623
▁comisiilor	-11.6624
▁legitime	-11.6626
▁7)	-11.6627
▁descriere	-11.6629
▁declarar	-11.6629
competitivităţii	-11.6632
▁inspira	-11.6632
▁austeridad	-11.6635
▁magnitud	-11.6635
▁şansa	-11.6635
▁şansă	-11.6635
▁detrimento	-11.6635
▁xix	-11.6635
cid	-11.6638
▁armonizado	-11.6639
▁asista	-11.664
▁ecológicos	-11.664
▁culpa	-11.6641
▁indicaţie	-11.6644
▁urmărit	-11.6644
▁desemnarea	-11.6646
▁voturi	-11.6647
▁generate	-11.665
9,	-11.6651
▁desfăşurare	-11.6655
▁fiable	-11.6655
▁eficazmente	-11.6656
pan	-11.6657
▁zbor	-11.6658
▁situada	-11.6658
▁opun	-11.6659
▁continuu	-11.666
▁oricine	-11.666
şti	-11.666
gene	-11.6662
79/	-11.6663
▁familii	-11.6664
▁franceză	-11.6666
▁judiciară	-11.6667
▁excesivo	-11.6668
▁urgentemente	-11.6669
▁aeriană	-11.6672
tici	-11.6675
▁preste	-11.6676
▁exemplar	-11.6676
▁german	-11.6676
▁aumenta	-11.6677
▁abordat	-11.6678
▁formularios	-11.6679
▁eliberată	-11.6681
▁automóvil	-11.6682
cional	-11.6685
▁derecha	-11.6686
▁transparenţei	-11.6687
zona	-11.669
▁comunitari	-11.669
ive	-11.6691
prop	-11.6698
▁deseen	-11.6699
▁lipsit	-11.67
▁opune	-11.6701
▁circular	-11.6701
▁iguales	-11.6702
▁em	-11.6703
▁circumstanţele	-11.6703
▁mijlocul	-11.6704
▁propună	-11.6707
▁combustibil	-11.6709
41	-11.671
▁consolidării	-11.6711
▁fiabilidad	-11.6711
▁promovării	-11.6711
▁brok	-11.6712
▁duc	-11.6713
▁sporirea	-11.6714
▁transferir	-11.6715
▁zeci	-11.6717
▁=	-11.672
▁producirse	-11.6721
▁regimuri	-11.6723
gui	-11.6727
mat	-11.6728
▁anilor	-11.6729
▁minute	-11.673
▁estrictos	-11.6731
▁reguladas	-11.6733
▁restabili	-11.6733
▁expiră	-11.6735
▁nerăbdare	-11.6737
▁provisión	-11.6737
▁tuberculosis	-11.6737
▁constructiv	-11.6737
▁imperativ	-11.6738
/19	-11.6739
▁reding	-11.6739
▁atestă	-11.6747
▁enlace	-11.6747
▁capabile	-11.6749
▁instalaţiilor	-11.6751
▁campos	-11.6753
▁ghid	-11.6754
▁parlamentele	-11.6756
▁respinge	-11.6757
▁diploma	-11.6758
▁imprescindible	-11.6762
▁religioasă	-11.6762
▁austeritate	-11.6762
▁analizeze	-11.6763
▁înțeles	-11.6764
▁partid	-11.6764
fund	-11.6766
66	-11.6767
▁implicación	-11.6768
▁echitabilă	-11.6774
▁operatori	-11.6782
bro	-11.6784
▁vecin	-11.6784
▁planificare	-11.6787
▁neagră	-11.6788
▁efd	-11.6788
▁agenţie	-11.679
▁originii	-11.6793
▁lipsei	-11.6793
▁obligă	-11.6794
▁fixat	-11.6795
▁inventario	-11.6796
▁scopurile	-11.6799
▁comprar	-11.6801
țional	-11.6805
▁compensar	-11.6805
▁ieşire	-11.6809
▁forestal	-11.681
▁símbolo	-11.6811
▁site	-11.6814
▁recunoască	-11.6814
▁(25)	-11.6815
▁móviles	-11.6816
▁detaliat	-11.6817
▁expediate	-11.6818
▁beneficiat	-11.6818
ificat	-11.682
▁revizuit	-11.6821
ieni	-11.6821
▁sexuale	-11.6822
▁parecer	-11.6825
▁75/442	-11.6825
directiva	-11.6826
pentru	-11.6826
▁spuse	-11.6827
▁denumirile	-11.6827
▁asigur	-11.6832
ft	-11.6833
▁exportados	-11.6835
▁echitabile	-11.6835
▁alemana	-11.6837
▁prohibido	-11.6838
▁fundament	-11.684
▁washington	-11.684
▁discriminatoria	-11.684
▁sinceramente	-11.6841
▁pregunto	-11.6844
▁raportoarei	-11.6844
▁actualul	-11.6846
▁barierelor	-11.6848
▁transformate	-11.6853
▁moduri	-11.6853
mbra	-11.6854
▁compruebe	-11.6855
▁garantată	-11.6856
▁interesa	-11.6857
▁distribuirea	-11.6858
▁trimise	-11.6859
izăm	-11.6859
▁respectăm	-11.6861
▁furnizor	-11.6863
▁dispuesta	-11.6863
▁definiţiile	-11.6863
▁ambiţios	-11.6866
▁francés	-11.6866
▁hrană	-11.6866
▁intenționează	-11.6866
▁neapărat	-11.6866
▁venezuela	-11.6866
▁pidiendo	-11.6866
▁traducción	-11.6866
▁fază	-11.6869
▁parámetros	-11.687
▁automóviles	-11.687
▁entra	-11.687
▁relativamente	-11.6874
▁institucionales	-11.6875
▁indicando	-11.6876
▁recon	-11.6877
▁proporţie	-11.6878
▁excepţii	-11.688
▁realista	-11.688
▁vinculados	-11.6881
sar	-11.6883
▁científicas	-11.6883
▁húngaro	-11.6889
▁haideţi	-11.6892
▁aceluiaşi	-11.6892
▁delegaciones	-11.6892
▁aceleași	-11.6893
ip	-11.6893
rge	-11.6896
▁penales	-11.6896
▁copias	-11.6897
▁agenției	-11.6897
▁minuto	-11.6898
▁77/	-11.6898
▁pacea	-11.69
▁funcţionarilor	-11.6901
▁simplificate	-11.6902
(7),	-11.6902
▁disponen	-11.6903
▁constructiva	-11.6905
▁ofrezcan	-11.6906
▁scăderea	-11.6906
▁reviste	-11.6907
▁internas	-11.6908
ática	-11.6912
▁încercarea	-11.6913
▁complexe	-11.6915
▁ejército	-11.6918
▁lampedusa	-11.6918
▁retención	-11.6918
▁revolución	-11.6918
▁90/675/	-11.6918
▁compoziţia	-11.6918
▁douăsprezece	-11.6919
▁pactului	-11.6923
▁nigeria	-11.6924
▁organizat	-11.6925
▁alarmante	-11.6925
▁dispozitiv	-11.6927
bce	-11.693
▁tor	-11.694
▁redactado	-11.6941
▁impone	-11.6941
ator	-11.6942
▁azerbaiyán	-11.6944
▁canarias	-11.6944
▁încurajăm	-11.6944
▁asesoramiento	-11.6944
▁transformar	-11.6945
▁pilon	-11.6948
▁rojo	-11.6948
▁entran	-11.6951
▁relevantă	-11.6951
orilor	-11.6953
ang	-11.6954
49	-11.6955
▁recurge	-11.6955
▁experienţei	-11.6955
▁solide	-11.6957
▁lansat	-11.696
▁oferte	-11.6961
▁supun	-11.6964
▁ambiciosa	-11.6968
▁coeziunii	-11.697
▁76/768/	-11.6971
▁monitoriza	-11.6972
▁specificaţii	-11.6976
▁extinderii	-11.6977
▁eliminare	-11.6977
▁top	-11.6977
▁forţele	-11.6979
▁testigos	-11.6982
▁aer	-11.6984
han	-11.6985
▁posibilităţi	-11.6987
▁2006.	-11.6989
▁calculará	-11.699
▁1,5	-11.6992
▁preliminar	-11.6997
▁bretaña	-11.6997
▁inspecţia	-11.6997
▁pasaje	-11.6999
▁privim	-11.7002
▁libertății	-11.7002
▁prudente	-11.7004
▁fraudei	-11.7005
▁movilizar	-11.701
spi	-11.701
av	-11.7011
▁bugetele	-11.7017
▁confiar	-11.702
▁porcino	-11.7021
▁încrederii	-11.7023
▁îngrijorătoare	-11.7023
▁observancia	-11.7023
▁hubo	-11.7024
▁israelul	-11.7025
▁gr	-11.7026
don	-11.703
▁pertenecen	-11.703
▁simpl	-11.7035
▁prezidat	-11.7037
▁contractuales	-11.7038
▁tabel	-11.7038
▁albă	-11.7039
▁76	-11.7039
▁regulados	-11.704
sin	-11.7041
▁conducir	-11.7043
27/	-11.7043
▁recomandare	-11.7044
▁década	-11.7047
▁aprobe	-11.7047
▁cumplirse	-11.7049
▁dublă	-11.705
▁democrația	-11.705
▁experți	-11.705
▁carolina	-11.705
▁autonomía	-11.705
▁herzegovina	-11.705
▁examinări	-11.7051
▁confruntat	-11.7054
▁eşantion	-11.7056
▁arăta	-11.7056
▁ajustes	-11.7058
▁afirmar	-11.7059
ităţilor	-11.7063
día	-11.7064
▁fo	-11.7067
▁informațiile	-11.7067
▁1993.	-11.7068
▁retrasos	-11.7069
▁acești	-11.707
▁slab	-11.7071
▁soluţionarea	-11.7075
▁conexión	-11.7076
▁estímulo	-11.7076
▁finlandei	-11.7076
▁interioare	-11.7076
▁anunţat	-11.7077
▁exportatoare	-11.7077
▁parţială	-11.7077
▁componentă	-11.7077
▁agrarios	-11.7079
▁introduc	-11.7079
▁interpretare	-11.708
▁70/220/	-11.7081
▁erori	-11.7081
íamos	-11.7083
▁organizați	-11.7085
▁recuperarea	-11.7086
▁aeronaves	-11.7087
66/	-11.7088
▁700	-11.7089
▁creare	-11.709
▁emitent	-11.7092
▁hago	-11.7096
▁încărcare	-11.7096
vie	-11.7097
▁descris	-11.7098
▁deseable	-11.71
▁camere	-11.71
▁armonizada	-11.7102
▁76/769/	-11.7103
▁básicamente	-11.7106
▁teroriste	-11.7106
▁refuzat	-11.7107
▁găsirea	-11.7108
▁disponemos	-11.7112
▁poliţie	-11.7113
▁porturile	-11.7114
▁bilanţ	-11.7119
54/	-11.712
▁funcione	-11.712
▁dominante	-11.7121
▁mecanismului	-11.7122
cop	-11.7125
▁vuelo	-11.7127
▁agrario	-11.7127
▁britanici	-11.7127
▁llamada	-11.7129
▁bandera	-11.7129
▁sufrir	-11.7129
▁notificaciones	-11.713
▁96	-11.7131
▁constatate	-11.7131
▁completat	-11.7132
▁insulelor	-11.7134
▁raportoarea	-11.7136
▁pesados	-11.7138
▁indicatori	-11.7139
▁cooperări	-11.7139
▁recentă	-11.7143
▁artificial	-11.7143
▁demuestre	-11.7145
▁organizado	-11.7146
▁tratamientos	-11.7148
▁impus	-11.7149
▁executare	-11.7151
▁recuperare	-11.7151
▁slabe	-11.7153
▁transporturi	-11.7155
▁consultat	-11.7156
▁milenio	-11.7156
▁índole	-11.7156
▁promis	-11.7157
▁semneze	-11.7158
▁exceso	-11.7159
▁exploataţiilor	-11.7164
▁16,	-11.7165
▁daune	-11.7166
(10)	-11.7169
▁amigos	-11.717
▁contribuyen	-11.7172
ndu	-11.7172
▁corte	-11.7172
▁vinde	-11.7173
▁potenciales	-11.7174
▁autorizaţiilor	-11.7176
▁curte	-11.7179
▁iniţiativele	-11.7181
▁agenţiilor	-11.7181
▁aftosa	-11.7183
▁protejează	-11.7183
▁ácido	-11.7183
▁externa	-11.7183
▁cuarta	-11.7185
▁domestice	-11.7186
▁primii	-11.7186
▁secundare	-11.7188
▁recipientes	-11.719
▁sincero	-11.7192
▁intermedia	-11.7193
▁conferinţei	-11.7194
▁definiţie	-11.7197
▁însăşi	-11.7197
▁arancelario	-11.7208
▁recuerdo	-11.721
▁manipulación	-11.7211
▁dotar	-11.7212
dido	-11.7214
▁verificării	-11.7215
▁actualizate	-11.722
▁estando	-11.7223
▁actúe	-11.7226
▁progresului	-11.7227
▁ş	-11.7227
74/	-11.7228
ep	-11.7229
▁cotele	-11.7229
penas	-11.7232
▁stabil	-11.7233
inter	-11.7233
▁participan	-11.7234
▁permitirán	-11.7236
▁729/70	-11.7237
▁protejăm	-11.7237
ign	-11.7239
▁106	-11.7239
▁minutos	-11.7241
qu	-11.7243
▁demuestran	-11.7243
56	-11.7243
▁marginal	-11.7246
▁treptată	-11.7247
▁miel	-11.7248
▁luare	-11.7251
▁dificultăți	-11.7252
ților	-11.7252
▁argumente	-11.7254
▁agro	-11.7257
ak	-11.7257
denumit	-11.7257
▁aditivii	-11.726
▁enviado	-11.7262
▁sacrificare	-11.7263
▁actuaciones	-11.7264
▁direcție	-11.7264
▁cuantifica	-11.7265
▁confirmado	-11.7265
▁800	-11.7266
▁indirecta	-11.7266
▁cunoştinţe	-11.7269
▁coastă	-11.727
▁dispensa	-11.727
▁darles	-11.7271
▁fixată	-11.7274
▁competitive	-11.7276
▁începem	-11.7277
▁negre	-11.7279
ff	-11.7279
▁exceda	-11.728
▁rutas	-11.7281
▁bunei	-11.7281
▁regimurile	-11.7281
▁istorice	-11.7283
▁ficha	-11.7284
▁nobel	-11.7284
rci	-11.7287
▁valid	-11.7289
▁tecnológico	-11.7289
▁vivienda	-11.7289
▁textele	-11.729
▁stoc	-11.7291
▁preocupare	-11.7291
▁arrastre	-11.7291
▁continuidad	-11.7291
▁dominio	-11.7291
▁efeméride	-11.7291
▁moluscos	-11.7291
▁plăcere	-11.7291
▁virginia	-11.7291
▁atribuidas	-11.7292
▁suele	-11.7292
▁capítulos	-11.7295
▁rele	-11.7296
▁constructivă	-11.73
▁absoluta	-11.7302
▁pic	-11.7303
▁argumento	-11.7305
▁válidos	-11.7305
▁american	-11.731
▁copil	-11.7314
▁contingentelor	-11.7317
▁complementare	-11.7317
▁ambientales	-11.7324
▁fiindcă	-11.7325
▁hoc	-11.7327
▁suveranitatea	-11.7327
▁achiziţionarea	-11.7327
▁reaccionar	-11.7329
▁dezbaterile	-11.7329
▁activamente	-11.7331
▁circulație	-11.7331
▁párrafos	-11.7334
▁ministrul	-11.7334
▁th	-11.7335
▁gratuit	-11.7336
▁viola	-11.7337
▁praga	-11.7338
▁integrar	-11.7339
▁contratante	-11.7344
▁cerrado	-11.7344
▁modificărilor	-11.7344
▁critica	-11.7344
▁codecizie	-11.7345
▁verhofstadt	-11.7345
▁gama	-11.7351
▁partidelor	-11.7354
pr	-11.7354
▁solas	-11.7354
▁dosarului	-11.7355
▁revizuită	-11.7355
▁irá	-11.7355
▁similară	-11.7356
berg	-11.736
izări	-11.7365
zar	-11.7365
▁țin	-11.7366
▁pregătite	-11.7367
ores	-11.7367
▁articolelor	-11.7368
▁falsific	-11.737
▁válida	-11.7371
▁modele	-11.7373
▁apariţia	-11.7373
▁barrot	-11.7373
▁permítame	-11.7373
▁prohíbe	-11.7373
▁pesqueras	-11.7374
▁africane	-11.7376
▁operaţional	-11.7377
▁specula	-11.7378
▁parlamentario	-11.7379
▁simplificare	-11.738
▁lovit	-11.738
▁conştient	-11.7383
▁cauze	-11.7383
▁drogas	-11.7385
▁vitală	-11.7387
ini	-11.7388
▁ban	-11.7389
▁discrimina	-11.739
▁cita	-11.739
▁velará	-11.7393
▁importat	-11.7395
rec	-11.7398
▁correo	-11.7398
▁plataforma	-11.7399
▁menține	-11.74
▁debatimos	-11.74
▁progresivamente	-11.7403
▁inventar	-11.7406
sitio	-11.7406
▁beneficiarul	-11.7409
▁hambre	-11.741
▁68	-11.7412
▁activele	-11.7415
▁banilor	-11.7417
▁componentele	-11.7417
▁>	-11.742
▁decisivo	-11.7421
97/	-11.7422
iuni	-11.7424
▁puterii	-11.7424
▁objeciones	-11.7428
▁suponen	-11.7428
▁fermitate	-11.7431
▁naturală	-11.7433
▁consistente	-11.7434
▁manifestado	-11.7438
▁campanie	-11.7438
▁dispozitivelor	-11.7439
▁investigar	-11.744
jen	-11.7442
ație	-11.7443
▁opţiuni	-11.7443
▁americani	-11.7445
▁mărcii	-11.7447
▁asumate	-11.7448
liza	-11.7449
▁ameninţare	-11.745
▁stadiu	-11.7451
▁ponen	-11.7451
red	-11.7454
▁azbest	-11.7455
▁concluido	-11.7455
▁asistența	-11.7455
▁fusión	-11.7455
▁implementación	-11.7456
▁prelungirea	-11.7456
▁simultáneamente	-11.7456
▁preia	-11.7456
▁investitorilor	-11.7459
▁marile	-11.7463
▁districtul	-11.7463
▁simplificado	-11.7464
inclusiv	-11.7469
▁apruebe	-11.7472
▁comerț	-11.7472
▁analizat	-11.7476
▁pere	-11.7477
▁zahărul	-11.7479
▁respetado	-11.7479
▁cumpărare	-11.7479
▁1251/1999	-11.7483
▁margine	-11.7483
▁restablecer	-11.7483
▁tranziție	-11.7483
▁cerinţă	-11.7483
▁proteccionismo	-11.7483
▁leer	-11.7483
▁evităm	-11.7484
▁justificación	-11.7485
▁extindă	-11.7485
▁parlamentar	-11.7486
▁folosirii	-11.7486
esta	-11.7487
▁religiosas	-11.7488
▁incendios	-11.749
▁decirle	-11.749
▁her	-11.749
▁descritas	-11.7492
▁profundă	-11.7495
produse	-11.7498
ţinuţi	-11.7498
har	-11.7498
38	-11.75
▁petroliere	-11.7501
▁procedan	-11.7502
stro	-11.7507
▁norvegia	-11.751
▁ceca	-11.7511
▁integrantă	-11.7511
▁colaborarea	-11.7511
▁distorsiones	-11.7511
▁primire	-11.7513
marca	-11.7514
▁conflictul	-11.7524
▁legislativos	-11.7527
▁corespundă	-11.7528
▁prestado	-11.7528
▁găsit	-11.7529
▁utilizarán	-11.7533
▁scena	-11.7536
▁vínculo	-11.7537
▁alegere	-11.7537
▁macedoniei	-11.7538
▁distruge	-11.7539
▁penală	-11.7542
▁chineză	-11.7544
prin	-11.7544
▁positivas	-11.7545
sch	-11.7546
▁verzilor	-11.7547
▁conține	-11.7547
▁91/49	-11.7547
▁spaniole	-11.7548
▁cruz	-11.7548
▁detalladas	-11.7554
▁llama	-11.756
▁coleg	-11.756
▁spună	-11.7562
▁beneficien	-11.7565
▁transparența	-11.7566
▁81/85	-11.7566
▁2201/96	-11.7566
cción	-11.7566
▁defineşte	-11.7566
▁ridica	-11.757
▁britanic	-11.7573
▁protesta	-11.7574
▁consultado	-11.7574
▁uleiului	-11.7576
▁inutile	-11.7577
▁piețelor	-11.7577
▁extranjeros	-11.7578
▁intens	-11.7578
55/	-11.7579
▁ameliorarea	-11.758
▁decida	-11.758
▁pierderile	-11.7584
▁primelor	-11.7584
mento	-11.7585
▁inevitabil	-11.7586
▁transportatorii	-11.7588
▁minut	-11.759
▁externos	-11.759
▁señores	-11.7592
▁histórico	-11.7593
▁funcție	-11.7594
▁salută	-11.7596
▁aditivo	-11.76
▁tru	-11.7601
▁reformei	-11.7605
iți	-11.7606
▁otorgar	-11.7609
ima	-11.761
tip	-11.7616
▁participant	-11.7617
▁estratégicos	-11.7617
▁restricţiilor	-11.7617
▁tecnológica	-11.7621
▁2220/85	-11.7622
▁africii	-11.7622
▁stipulează	-11.7622
▁uganda	-11.7622
▁putinţă	-11.7622
▁(26)	-11.7623
▁aplicados	-11.7623
▁împotrivă	-11.7623
▁victoria	-11.7623
▁justificative	-11.7627
▁tranzacţii	-11.7628
▁permanentes	-11.7631
▁fixe	-11.7631
▁cuidados	-11.7633
▁tratarea	-11.7636
▁afectaţi	-11.7636
▁critic	-11.7648
▁modificării	-11.7649
▁continuo	-11.765
▁tuviera	-11.765
▁înlocuiască	-11.765
mini	-11.7651
▁71/1	-11.7651
▁informaţiei	-11.7654
▁expresamente	-11.7654
▁vacunas	-11.7655
▁supondrá	-11.7656
▁timpului	-11.7657
dar	-11.7659
▁legislaţiile	-11.7661
▁întârzieri	-11.7661
nteroperabilidad	-11.7666
▁convierta	-11.7667
▁textului	-11.7669
▁complex	-11.7672
▁prealabile	-11.7678
▁evalueze	-11.7678
▁cartera	-11.7678
▁progresiva	-11.768
▁exportator	-11.7681
65	-11.7684
▁amintit	-11.7686
▁actualización	-11.7687
net	-11.7688
▁afecten	-11.7689
▁pendientes	-11.7693
▁digitală	-11.7696
▁posibilul	-11.7701
▁acceptabil	-11.7705
▁oficinas	-11.7705
via	-11.7706
▁cotizaciones	-11.7706
▁represión	-11.7706
▁somalia	-11.7706
▁şefi	-11.7707
▁afecteze	-11.7707
▁radioactive	-11.771
▁capabili	-11.7711
rup	-11.7713
lina	-11.7713
▁depozitate	-11.7714
▁tarjeta	-11.7716
▁1996.	-11.7716
▁funcţiile	-11.7717
▁tendencias	-11.772
▁implique	-11.7724
▁opri	-11.7725
▁umanitară	-11.7725
▁exigidas	-11.7726
▁fao	-11.7726
▁reformelor	-11.7728
▁med	-11.7732
▁decente	-11.7733
▁manteniendo	-11.7735
▁menționez	-11.7735
▁pedeapsa	-11.7735
▁republică	-11.7735
▁urmeze	-11.7735
▁analizează	-11.7735
▁utilizator	-11.7737
▁presa	-11.7738
▁cese	-11.774
▁furajele	-11.774
▁poziţiei	-11.7741
▁acero	-11.7742
▁ejerzan	-11.7745
▁istorie	-11.7746
▁compromisul	-11.7748
▁critice	-11.775
▁sistematic	-11.775
ducerea	-11.7751
▁organele	-11.7751
▁prioritatea	-11.7752
▁benefician	-11.7755
▁coordonat	-11.7757
▁angajare	-11.776
▁denegación	-11.7763
▁iniţierea	-11.7763
▁mercosur	-11.7763
▁întâmple	-11.7763
▁─	-11.7763
▁paga	-11.7763
▁rasă	-11.7764
▁conducción	-11.7764
▁electricitate	-11.7765
▁pcb	-11.7765
▁tratare	-11.7768
▁continent	-11.7768
▁furnizorul	-11.7769
▁violenţei	-11.777
▁compañeros	-11.7771
▁asignar	-11.7773
▁reprezentate	-11.7775
▁operan	-11.7777
▁conformă	-11.778
▁instituite	-11.778
▁importadas	-11.7783
nței	-11.7783
▁constituirá	-11.7786
▁fer	-11.7786
▁tonă	-11.7786
▁reglementării	-11.7787
37	-11.7789
▁representativos	-11.779
▁griego	-11.7791
▁matadero	-11.7791
▁aniversario	-11.7792
▁sarkozy	-11.7792
▁sufrimiento	-11.7792
▁violența	-11.7792
▁cărbunelui	-11.7792
▁compensadores	-11.7792
▁pos	-11.7793
▁sucursal	-11.7795
▁hábiles	-11.7795
▁seriamente	-11.7795
▁sustituyen	-11.7796
▁regularidad	-11.7798
▁rein	-11.7799
▁pir	-11.78
▁atacuri	-11.7802
▁contribuţiile	-11.7802
▁queden	-11.7804
▁lungi	-11.7806
▁significativos	-11.7807
▁achiziţiile	-11.7808
▁stabiliţi	-11.7809
▁conserve	-11.7809
▁instituţiei	-11.7809
▁justiţiei	-11.7815
▁plin	-11.7818
▁informată	-11.7818
oli	-11.7818
▁consumator	-11.7819
▁terrible	-11.782
▁británico	-11.782
▁presidido	-11.782
▁quiebra	-11.782
▁navigabile	-11.782
▁amintesc	-11.782
▁biológica	-11.7821
▁știți	-11.7821
▁fixarea	-11.7822
▁cruce	-11.7826
▁componentelor	-11.7828
▁inspector	-11.783
▁]	-11.7831
▁insiste	-11.7833
▁estemos	-11.7834
▁personală	-11.7834
icas	-11.7836
▁ofertei	-11.7839
▁envíos	-11.784
▁stocarea	-11.7844
▁cumpără	-11.7845
▁vid	-11.7846
▁colectivos	-11.7846
▁adăpost	-11.7849
▁apéndice	-11.7849
▁structură	-11.7849
▁caută	-11.7849
▁oricând	-11.7849
▁abre	-11.7855
▁primeras	-11.7857
▁competențe	-11.7858
▁vânzările	-11.7858
▁sondaj	-11.786
▁salvar	-11.7861
▁arunc	-11.7863
▁37,	-11.7863
▁ducă	-11.7863
▁textelor	-11.7865
rm	-11.7867
▁ahorrar	-11.787
moni	-11.787
▁angajate	-11.7872
▁urmărirea	-11.7873
▁desemnată	-11.7874
▁irregularidad	-11.7874
▁necesariamente	-11.7875
▁árabe	-11.7877
▁maíz	-11.7878
▁adjunto	-11.7878
▁însuşi	-11.7878
▁oarecare	-11.7878
▁verano	-11.7878
▁întocmirea	-11.7879
▁vecine	-11.7879
▁cabeza	-11.7879
▁coerentă	-11.7885
og	-11.7886
▁ministerio	-11.7886
▁caracteres	-11.7887
64	-11.7889
▁presă	-11.7889
▁desempeñan	-11.7891
▁luptei	-11.7891
▁interzise	-11.7892
▁pachetului	-11.7894
▁1997.	-11.7896
36	-11.7896
▁hamas	-11.7901
▁perjudicial	-11.7903
▁significativas	-11.7903
▁albastru	-11.7906
▁interrupción	-11.7906
▁refugiaţi	-11.7909
▁animar	-11.7909
iunea	-11.7912
▁alineatului	-11.7913
▁interesada	-11.7913
▁unida	-11.7915
▁restrictive	-11.7918
▁înscrierea	-11.7922
▁conformează	-11.7926
vert	-11.7926
▁merg	-11.793
▁expunere	-11.7933
▁închidere	-11.7933
▁fiabile	-11.7933
▁170	-11.7935
▁madagascar	-11.7935
▁metodología	-11.7935
▁violență	-11.7935
▁declarația	-11.7936
▁filtr	-11.7936
▁proporcionará	-11.7938
▁confirme	-11.7938
▁explotar	-11.7939
dina	-11.7941
▁prospect	-11.7943
▁relațiilor	-11.7943
▁terţ	-11.7944
▁fueran	-11.7946
▁delicado	-11.7948
▁întrebării	-11.7949
▁creando	-11.7953
▁verificărilor	-11.7953
▁reprezentată	-11.7959
▁redact	-11.7961
▁simbol	-11.7964
▁elaborării	-11.7964
▁taiwán	-11.7964
▁unánime	-11.7964
▁violenţă	-11.7964
▁aparición	-11.7964
▁constrângeri	-11.7964
▁lógica	-11.7965
▁trigo	-11.7966
▁vuelos	-11.7967
▁bloque	-11.7968
dan	-11.7968
▁agentul	-11.7971
▁tarifele	-11.7973
▁asociaţiile	-11.7975
▁situată	-11.7977
▁deudas	-11.7978
dul	-11.7978
▁proporcione	-11.7982
▁anexe	-11.7985
▁ignorar	-11.7988
▁metal	-11.7988
▁vendedor	-11.799
ificación	-11.7991
▁parecen	-11.7992
▁schimbe	-11.7992
▁fomenta	-11.7993
▁complejo	-11.7993
▁acţionând	-11.7993
▁bineînțeles	-11.7993
▁coelho	-11.7993
▁emergentes	-11.7993
▁emergente	-11.7993
▁generează	-11.7994
▁brevedad	-11.7994
▁recibo	-11.7994
▁săraci	-11.7994
▁fixează	-11.7994
▁evidenţiat	-11.7994
▁permisă	-11.7998
▁emp	-11.7999
▁tabelului	-11.8
zan	-11.8001
▁reflecta	-11.8001
▁reduc	-11.8003
cons	-11.8006
tură	-11.8006
▁propuestos	-11.8007
▁modernizarea	-11.8011
▁expedirá	-11.8014
▁informativ	-11.8016
▁implicată	-11.8019
▁escuelas	-11.802
▁funcționează	-11.8023
▁legítimo	-11.8023
▁încetează	-11.8023
▁gatt	-11.8025
▁peligros	-11.8028
▁invită	-11.8028
▁furajere	-11.8029
▁alimento	-11.8031
▁experimentado	-11.8032
iden	-11.8033
▁ofertele	-11.8036
▁prezentă	-11.8037
▁artes	-11.8039
▁correspondan	-11.8041
▁spate	-11.8042
▁críticos	-11.8045
▁diaria	-11.8046
valor	-11.8046
▁integra	-11.8047
▁crizelor	-11.805
▁formele	-11.8052
▁cărbune	-11.8052
▁1255/1999	-11.8052
▁amianto	-11.8052
▁plătesc	-11.8052
▁recoltă	-11.8052
▁urmăresc	-11.8052
▁împărtăşesc	-11.8052
▁terremoto	-11.8052
▁rest	-11.8052
▁așteptăm	-11.8052
▁dólares	-11.8053
▁aportación	-11.8053
▁relaţie	-11.8054
▁ajena	-11.8055
ena	-11.8057
▁ratificat	-11.8058
europa	-11.8058
▁plenaria	-11.8058
▁datoriilor	-11.806
iente	-11.8062
ly	-11.8065
▁păstrate	-11.8065
▁emit	-11.8066
torio	-11.8067
▁colabora	-11.8069
▁causar	-11.8072
34/	-11.8074
▁potrivită	-11.8075
▁vinculadas	-11.8076
tit	-11.8078
▁scoate	-11.808
▁énfasis	-11.8081
▁equivalencia	-11.8081
▁promovăm	-11.8081
▁explicaţii	-11.8082
▁percepción	-11.8082
▁compensatoare	-11.8082
▁angajeze	-11.8082
▁depunerii	-11.8084
▁naționalitate	-11.8084
▁raportează	-11.8084
▁procese	-11.8085
▁entrado	-11.8087
▁judiciar	-11.8088
▁exprime	-11.8088
▁deșeuri	-11.8089
té	-11.8092
▁funcţionari	-11.8094
▁mantengan	-11.8096
▁constantă	-11.8098
ministrul	-11.8099
ef	-11.8099
▁contribuabili	-11.81
▁conecta	-11.8102
▁complementarios	-11.8105
rado	-11.8108
▁tehnologiilor	-11.8109
▁honor	-11.811
▁1980/2000	-11.8111
▁sencillo	-11.8111
▁conocido	-11.8111
▁creditele	-11.8113
▁despedidos	-11.8113
▁defecto	-11.8113
▁gol	-11.8114
▁martin	-11.8115
▁fur	-11.8116
▁gi	-11.8118
64/	-11.8118
▁români	-11.8119
▁105	-11.8119
▁coherentes	-11.8121
▁calculul	-11.8121
▁parcelas	-11.8123
▁celebra	-11.8123
▁progresista	-11.8124
▁delegați	-11.8124
▁negativas	-11.8126
▁facilite	-11.8128
▁menţiunile	-11.8129
rare	-11.8135
▁actualizar	-11.8136
▁permitirse	-11.8136
pesc	-11.8139
▁găsesc	-11.814
▁virtute	-11.814
▁consolidează	-11.814
▁británicos	-11.8141
▁șomajului	-11.8142
▁aplicacion	-11.8142
▁tr	-11.8143
▁convenţii	-11.8148
▁oferită	-11.8149
▁(7),	-11.815
▁moderne	-11.815
▁piezas	-11.815
▁desfăşurat	-11.8151
▁amendamentului	-11.8152
▁opere	-11.8153
▁lichidare	-11.8157
▁contrare	-11.8159
▁mur	-11.816
▁periódicos	-11.816
▁profundidad	-11.816
/7	-11.8164
▁procentaj	-11.8164
▁homosexual	-11.8165
▁2017	-11.8165
▁campeonato	-11.817
▁deterioro	-11.817
▁recesiune	-11.817
▁ucrainei	-11.817
▁ultramar	-11.817
▁referirse	-11.817
▁escasa	-11.8171
▁ganar	-11.8171
▁viable	-11.8172
▁mutuamente	-11.8176
omi	-11.8176
▁varietăţi	-11.8178
▁estaciones	-11.8182
▁fabricados	-11.8186
▁varia	-11.8187
▁convingerea	-11.8188
▁perjudicar	-11.8191
▁ido	-11.8194
▁anunţ	-11.8197
87/	-11.8197
▁cart	-11.8198
▁gravemente	-11.8198
▁incertidumbre	-11.8199
▁vacío	-11.8199
▁londra	-11.8199
▁cop	-11.8199
▁aleagă	-11.8199
▁histórica	-11.82
▁opel	-11.8201
▁química	-11.8202
wi	-11.8203
▁președintelui	-11.8203
loc	-11.8204
▁absolută	-11.8205
▁sosit	-11.8206
▁intensifica	-11.8211
▁sudul	-11.8213
rica	-11.8213
▁crucială	-11.8214
fidenţialitatea	-11.8215
▁atitudinea	-11.8217
▁revizuirii	-11.8217
ghi	-11.8218
▁îngrijorarea	-11.8218
▁contribuind	-11.822
▁rescate	-11.8222
▁consideradas	-11.8224
▁repartizarea	-11.8225
▁forța	-11.8227
▁estándar	-11.8228
▁millón	-11.8229
▁circunstancia	-11.823
▁satisfactorio	-11.823
ţiuni	-11.823
▁ofrecido	-11.8231
nden	-11.8232
▁180	-11.8232
▁marítimas	-11.8233
▁devolver	-11.8234
▁interzis	-11.8236
▁carreteras	-11.8238
▁conoce	-11.8244
▁febre	-11.8246
▁interino	-11.8246
▁comercializa	-11.8248
▁scutiri	-11.8249
▁94	-11.825
▁etapele	-11.8252
▁compara	-11.8253
▁comportamentul	-11.8253
mod	-11.8255
▁invitat	-11.8256
▁apelul	-11.8257
▁manifestaciones	-11.826
▁secretarul	-11.826
▁desen	-11.8261
ța	-11.8262
▁relevant	-11.8262
▁económicamente	-11.8263
▁primirii	-11.8263
▁urgentes	-11.8268
▁asignados	-11.8269
▁cunoştinţelor	-11.8269
▁che	-11.8271
▁activităților	-11.8271
numit	-11.8274
▁operaţiunea	-11.8275
▁21,	-11.8276
▁rece	-11.828
▁centrar	-11.828
▁suplementarias	-11.828
▁cliente	-11.8281
uş	-11.8282
▁rela	-11.8287
77/	-11.8289
▁mulţumit	-11.8289
▁încălcării	-11.829
▁contingent	-11.829
▁dinámica	-11.829
▁milion	-11.8291
▁subproductos	-11.8291
▁pregătiţi	-11.8291
▁publicitate	-11.8292
▁refuzul	-11.8293
▁91/68	-11.8297
▁discuții	-11.8297
▁înțeleg	-11.8298
▁depunem	-11.8298
▁descrisă	-11.8298
▁útiles	-11.8302
▁pasagerii	-11.8304
▁inacceptabilă	-11.8306
▁compus	-11.8306
58	-11.8307
gamă	-11.8307
▁uniuni	-11.8308
▁legilor	-11.831
▁înlocuite	-11.8313
▁reducem	-11.8313
▁utilizatori	-11.8314
▁far	-11.8315
▁întări	-11.8315
▁pericolul	-11.8317
▁aceia	-11.8319
▁așteaptă	-11.8319
▁goldstone	-11.8319
▁trec	-11.8319
▁soliciten	-11.832
▁conjuntos	-11.832
▁desearía	-11.8322
▁luces	-11.8323
▁stării	-11.8323
▁formulada	-11.8323
76/	-11.8324
91/	-11.8324
▁proporcionado	-11.8326
▁defensores	-11.833
▁empleado	-11.8331
▁temporalmente	-11.8332
▁intervale	-11.8333
▁definiţiei	-11.8338
ño	-11.834
▁încălcările	-11.8341
▁sexo	-11.8346
▁azores	-11.8348
▁catálogo	-11.8349
▁cáñamo	-11.8349
▁cofinanciación	-11.835
▁fu	-11.835
▁azore	-11.835
▁report	-11.8352
▁importator	-11.8352
▁comunista	-11.8353
▁solid	-11.8354
iese	-11.8355
▁determinan	-11.8356
▁declaraţiilor	-11.8358
▁termene	-11.836
pas	-11.836
▁reducidos	-11.8361
▁întreprinde	-11.8363
▁1970,	-11.8364
▁obligatorias	-11.8366
▁ruso	-11.8368
▁contraria	-11.8369
▁decisiva	-11.8376
rna	-11.8376
▁britanii	-11.8379
▁liechtenstein	-11.8379
▁ungariei	-11.8379
▁ştampila	-11.8379
▁corrección	-11.8379
▁stabilește	-11.838
▁expresadas	-11.838
▁fax	-11.838
▁despăgubire	-11.8382
▁registrada	-11.8382
▁bolile	-11.8382
▁referido	-11.8385
▁calculat	-11.8389
▁abia	-11.839
▁latina	-11.839
▁înregistrării	-11.8391
▁permisos	-11.8396
▁potențialul	-11.8399
▁prevén	-11.8404
▁zgomot	-11.8405
▁complejidad	-11.841
▁sugerează	-11.841
▁circuitul	-11.841
▁locuiesc	-11.841
▁refuerza	-11.841
▁acasă	-11.841
▁olanda	-11.841
▁productividad	-11.841
▁standardul	-11.8412
▁encontrado	-11.8419
▁querría	-11.8419
▁alătur	-11.8421
▁preocuparea	-11.8421
▁facto	-11.8424
▁significado	-11.8424
▁impozite	-11.8426
▁logros	-11.8428
▁compensare	-11.8428
▁italiano	-11.8432
▁sch	-11.8433
▁afecte	-11.8436
▁diría	-11.8437
▁renovar	-11.844
▁gravámenes	-11.844
▁mediterana	-11.844
▁oettinger	-11.844
▁pescărie	-11.844
▁solvencia	-11.844
▁rubrici	-11.844
▁examineze	-11.844
▁înceteze	-11.8441
▁página	-11.8441
▁requerida	-11.8441
/6	-11.8446
[...]
